{"type": "char_ngram_bow", "ngram_min": 2, "ngram_max": 5, "max_vocab": 30000, "input_dim": 22454, "normalize": {"lowercase": true, "pad_token": " ", "collapse_whitespace": true}, "sublinear_tf": true, "l2_normalize": true, "oov_index": 0, "word_index": {"an": 1, " d": 2, "a ": 3, " p": 4, "t ": 5, " t": 6, " s": 7, " b": 8, "b ": 9, "ri": 10, "tr": 11, "n ": 12, "ra": 13, "i ": 14, "in": 15, "g ": 16, " tr": 17, "s ": 18, "db": 19, " e": 20, " db": 21, "ng": 22, "db ": 23, "ma": 24, " db ": 25, " k": 26, "r ": 27, "an ": 28, "ng ": 29, "ar": 30, "f ": 31, "ba": 32, "ki": 33, "it": 34, "rs": 35, "ta": 36, " i": 37, "er": 38, "sf": 39, "ing": 40, "ed": 41, "ay": 42, "ing ": 43, "ya": 44, "na": 45, " a": 46, "k ": 47, " r": 48, "g d": 49, "ng d": 50, "c ": 51, "ing d": 52, "g db": 53, "ng db": 54, "g db ": 55, "bi": 56, " m": 57, "at": 58, "is": 59, "la": 60, "ah": 61, "ha": 62, "ban": 63, "de": 64, "dc": 65, " ed": 66, "edc": 67, " edc": 68, "im": 69, "ran": 70, "aya": 71, "dc ": 72, "edc ": 73, " edc ": 74, "nk": 75, "p ": 76, "on": 77, "kin": 78, "-b": 79, "-ba": 80, "ank": 81, "nki": 82, "-ban": 83, "bank": 84, "anki": 85, "nkin": 86, "king": 87, "-bank": 88, "banki": 89, "ankin": 90, "nking": 91, "trs": 92, "rsf": 93, "sf ": 94, " trs": 95, "trsf": 96, "rsf ": 97, " trsf": 98, "trsf ": 99, "king ": 100, "y ": 101, "am": 102, "e-": 103, " e-": 104, "e-b": 105, " e-b": 106, "e-ba": 107, " e-ba": 108, "e-ban": 109, "e ": 110, "it ": 111, " n": 112, "ka": 113, "f e": 114, "sf e": 115, "f e-": 116, "rsf e": 117, "sf e-": 118, "f e-b": 119, "ia": 120, "pr": 121, "sa": 122, " de": 123, "di": 124, "s p": 125, "py": 126, "or": 127, "as": 128, "rim": 129, " g": 130, "eb": 131, " pr": 132, "ri ": 133, "nd": 134, "is ": 135, "re": 136, "rf": 137, "trf": 138, "rf ": 139, " trf": 140, "trf ": 141, " trf ": 142, "st": 143, "su": 144, "deb": 145, "to": 146, "l ": 147, "ir": 148, "be": 149, " l": 150, "ur": 151, "m ": 152, "si": 153, "ebi": 154, "bit": 155, " deb": 156, "debi": 157, "ebit": 158, "bit ": 159, " debi": 160, "debit": 161, "ebit ": 162, "iri": 163, "ris": 164, "o ": 165, "al": 166, "h ": 167, "ima": 168, "rima": 169, "nt": 170, "ris ": 171, " sa": 172, "ek": 173, "t e": 174, "wi": 175, "tra": 176, "it e": 177, "t ed": 178, "bit e": 179, "it ed": 180, "t edc": 181, "is p": 182, "ris p": 183, "ke": 184, " q": 185, "da": 186, "el": 187, "by": 188, " h": 189, "ah ": 190, "py ": 191, "ns": 192, "qr": 193, "pm": 194, " qr": 195, "qri": 196, " qri": 197, "qris": 198, " qris": 199, "qris ": 200, "mt": 201, " pm": 202, "pmt": 203, " pmt": 204, "er ": 205, "mt ": 206, "pmt ": 207, " pmt ": 208, "us": 209, "pe": 210, " ki": 211, "s pm": 212, "is pm": 213, "s pmt": 214, "pa": 215, "man": 216, "ni": 217, "ja": 218, "ko": 219, "rt": 220, "ak": 221, "at ": 222, "ua": 223, "ans": 224, "rans": 225, "kir": 226, " kir": 227, "kiri": 228, "irim": 229, " kiri": 230, "kirim": 231, "han": 232, "et": 233, " u": 234, "li": 235, "wa": 236, " c": 237, "ma ": 238, "pu": 239, "pp": 240, "ib": 241, "u ": 242, "hi": 243, "gi": 244, "yr": 245, " by": 246, "byr": 247, "yr ": 248, "bay": 249, " byr": 250, "byr ": 251, " byr ": 252, "tran": 253, "trans": 254, " tra": 255, " tran": 256, "op": 257, "ra ": 258, "ag": 259, " ta": 260, "um": 261, "fe": 262, "mb": 263, " pe": 264, "un": 265, " j": 266, "dr": 267, "se": 268, "gr": 269, "r t": 270, "ran ": 271, "ab": 272, "han ": 273, "lan": 274, "ya ": 275, "ad": 276, "pri": 277, " pri": 278, "yar": 279, "baya": 280, "ayar": 281, "bayar": 282, "ari": 283, "ana": 284, "ti": 285, " bi": 286, "bu": 287, "do": 288, " ma": 289, "vi": 290, "ih": 291, "tag": 292, "agi": 293, "gih": 294, "iha": 295, " tag": 296, "tagi": 297, "agih": 298, "giha": 299, "ihan": 300, " tagi": 301, "tagih": 302, "agiha": 303, "gihan": 304, "np": 305, "ihan ": 306, "a d": 307, " np": 308, "np ": 309, " np ": 310, "nt ": 311, " ra": 312, " be": 313, "ang": 314, "ol": 315, "nsf": 316, "sfe": 317, "fer": 318, "ansf": 319, "nsfe": 320, "sfer": 321, "fer ": 322, "ransf": 323, "ansfe": 324, "nsfer": 325, "sfer ": 326, "ik": 327, " ib": 328, "go": 329, " go": 330, "man ": 331, " ka": 332, "ta ": 333, "mi": 334, "sa ": 335, "b e": 336, "db e": 337, "b ed": 338, " db e": 339, "db ed": 340, "b edc": 341, "es": 342, " o": 343, "ek ": 344, "si ": 345, "ga": 346, " su": 347, "b p": 348, " se": 349, " y": 350, "te": 351, " w": 352, " in": 353, "iman": 354, "irima": 355, "riman": 356, "iman ": 357, "ip": 358, " 2": 359, "ama": 360, "tc": 361, "aya ": 362, "and": 363, "sw": 364, "ch": 365, " sw": 366, "swi": 367, "wit": 368, "itc": 369, "tch": 370, "chi": 371, "hin": 372, " swi": 373, "swit": 374, "witc": 375, "itch": 376, "tchi": 377, "chin": 378, "hing": 379, " swit": 380, "switc": 381, "witch": 382, "itchi": 383, "tchin": 384, "ching": 385, "hing ": 386, "ap": 387, " ip": 388, "ipy": 389, " ipy": 390, "ipy ": 391, " ipy ": 392, " st": 393, "ar ": 394, "bel": 395, "sp": 396, "aha": 397, "et ": 398, " ke": 399, "na ": 400, "du": 401, "asi": 402, "iu": 403, "ut": 404, "bia": 405, "iay": 406, " bia": 407, "biay": 408, "iaya": 409, " biay": 410, "biaya": 411, "iaya ": 412, " re": 413, "tor": 414, "sm": 415, "ne": 416, "a i": 417, " 3": 418, "ho": 419, " bu": 420, "fa": 421, "ib ": 422, "dr ": 423, " sa ": 424, "prim": 425, " prim": 426, "prima": 427, "ara": 428, "aran": 429, " f": 430, "rab": 431, "up": 432, " dr": 433, "sa i": 434, "a ib": 435, " ib ": 436, "ib p": 437, "b pr": 438, "ima ": 439, "ma d": 440, "a dr": 441, " dr ": 442, "dr t": 443, "r tr": 444, " sa i": 445, "sa ib": 446, "a ib ": 447, " ib p": 448, "ib pr": 449, "b pri": 450, "rima ": 451, "ima d": 452, "ma dr": 453, "a dr ": 454, " dr t": 455, "dr tr": 456, "r trf": 457, "tri": 458, "ora": 459, "kt": 460, "ul": 461, "ku": 462, "t s": 463, "0 ": 464, "6 ": 465, " sp": 466, "ami": 467, " pu": 468, "en": 469, "em": 470, "ari ": 471, "art": 472, "nas": 473, "nasi": 474, "ant": 475, "ata": 476, "ym": 477, "a s": 478, "2 ": 479, "ok": 480, "ang ": 481, "1 ": 482, "ni ": 483, " ko": 484, " 8": 485, "as ": 486, "rb": 487, "pl": 488, " 6": 489, "4 ": 490, " ba": 491, "3 ": 492, "ia ": 493, " v": 494, "lin": 495, " z": 496, "za": 497, "il": 498, " za": 499, "9 ": 500, "le": 501, "bo": 502, "n b": 503, " pl": 504, "pem": 505, "emb": 506, " pem": 507, "pemb": 508, " pemb": 509, "ci": 510, "ina": 511, "24": 512, " sm": 513, "str": 514, "ru": 515, "adi": 516, "rt ": 517, " an": 518, "asi ": 519, " 5": 520, "b b": 521, "db b": 522, " db b": 523, "ak ": 524, "sto": 525, "ore": 526, "mba": 527, "emba": 528, "mbay": 529, "yara": 530, "pemba": 531, "embay": 532, "mbaya": 533, "ayara": 534, "yaran": 535, "aran ": 536, "ga ": 537, "id": 538, "p s": 539, "aw": 540, " ha": 541, "5 ": 542, "mn": 543, " py": 544, "pym": 545, "ymn": 546, "mnt": 547, " pym": 548, "pymn": 549, "ymnt": 550, "mnt ": 551, " pymn": 552, "pymnt": 553, "ymnt ": 554, "pra": 555, " pra": 556, "n r": 557, "an r": 558, "tu": 559, " 7": 560, "84": 561, "rm": 562, "mi ": 563, "mah": 564, "65": 565, "nda": 566, "98": 567, "i s": 568, "ura": 569, "uran": 570, " 1": 571, "43": 572, "rma": 573, "an b": 574, "ja ": 575, "31": 576, " 9": 577, "39": 578, "49": 579, "mat": 580, "wat": 581, "ik ": 582, "8 ": 583, "99": 584, "sar": 585, " 0": 586, "gra": 587, "ona": 588, "7 ": 589, "so": 590, "14": 591, "ela": 592, "75": 593, " 4": 594, "93": 595, "50": 596, "79": 597, "t b": 598, " do": 599, "57": 600, "ola": 601, " ku": 602, "21": 603, "60": 604, "25": 605, "28": 606, "a b": 607, " vi": 608, "05": 609, "54": 610, "ai": 611, "b g": 612, "db g": 613, "ami ": 614, " la": 615, "62": 616, "86": 617, "nj": 618, "ro": 619, "anj": 620, "nja": 621, "bela": 622, "elan": 623, "lanj": 624, "anja": 625, "belan": 626, "elanj": 627, "lanja": 628, "32": 629, "63": 630, "04": 631, "97": 632, " ad": 633, "edi": 634, "lo": 635, "al ": 636, "23": 637, "66": 638, "ina ": 639, "42": 640, "sus": 641, "58": 642, "nja ": 643, "anja ": 644, "22": 645, " ua": 646, "uan": 647, "ist": 648, " uan": 649, "uang": 650, "istr": 651, " uang": 652, "uang ": 653, "30": 654, "awa": 655, "ot": 656, "ram": 657, "nasi ": 658, "um ": 659, "20": 660, "51": 661, "12": 662, "46": 663, "77": 664, " db g": 665, "per": 666, "ter": 667, "kur": 668, " bel": 669, " bela": 670, "po": 671, "n k": 672, "ks": 673, "ks ": 674, "don": 675, "ud": 676, "53": 677, "mu": 678, "15": 679, "erm": 680, "perm": 681, "q ": 682, " kur": 683, "41": 684, "72": 685, "kar": 686, "kart": 687, "sh": 688, "44": 689, "erma": 690, "perma": 691, "aq": 692, "spp": 693, "pp ": 694, " spp": 695, "spp ": 696, " spp ": 697, "82": 698, "19": 699, "89": 700, "a m": 701, "87": 702, "90": 703, "06": 704, "96": 705, "sho": 706, "kal": 707, "yu": 708, " le": 709, "ob": 710, "mp": 711, "dp": 712, " dp": 713, " so": 714, "us ": 715, "stor": 716, "tore": 717, "store": 718, "52": 719, "26": 720, "on ": 721, "36": 722, "me": 723, "ppy": 724, "76": 725, "69": 726, "alo": 727, "rat": 728, "55": 729, "pp s": 730, "spp s": 731, "re ": 732, " sto": 733, "ore ": 734, " stor": 735, "tore ": 736, "mo": 737, "tri ": 738, "ber": 739, "bp": 740, "ppy ": 741, "kel": 742, "80": 743, "imb": 744, "nu": 745, "59": 746, "au": 747, "pay": 748, "rs ": 749, "95": 750, "01": 751, "dit": 752, " gr": 753, " gra": 754, "grab": 755, " grab": 756, "os": 757, "33": 758, "08": 759, "91": 760, " iu": 761, "iur": 762, " iur": 763, "iura": 764, " iura": 765, "iuran": 766, "uran ": 767, "br": 768, "ke ": 769, "73": 770, " rs": 771, " rs ": 772, " bp": 773, "11": 774, "e a": 775, "an k": 776, "tar": 777, "07": 778, "lu": 779, "68": 780, "71": 781, "34": 782, "02": 783, "aka": 784, " wa": 785, "88": 786, "mar": 787, " pa": 788, "17": 789, "n ka": 790, "lah": 791, "lah ": 792, "74": 793, "85": 794, "27": 795, "ani": 796, "47": 797, "40": 798, "ita": 799, "35": 800, " da": 801, "uma": 802, "opa": 803, "ne ": 804, "rg": 805, "13": 806, "45": 807, "ita ": 808, "a p": 809, "yar ": 810, "ayar ": 811, "yam": 812, "16": 813, " adi": 814, "ran r": 815, "ic": 816, " ci": 817, "elu": 818, "lua": 819, "uar": 820, "arg": 821, "rga": 822, "kelu": 823, "elua": 824, "luar": 825, "uarg": 826, "arga": 827, "kelua": 828, "eluar": 829, "luarg": 830, "uarga": 831, "eko": 832, "od": 833, "09": 834, "b s": 835, "db s": 836, " db s": 837, "io": 838, "18": 839, "les": 840, " les": 841, "rah": 842, "om": 843, "67": 844, "92": 845, " kel": 846, "rga ": 847, " kelu": 848, "arga ": 849, " don": 850, "dona": 851, "onas": 852, " dona": 853, "donas": 854, "onasi": 855, "70": 856, " wi": 857, "iv": 858, "n s": 859, " rah": 860, " ya": 861, "ind": 862, "38": 863, "gop": 864, "ay ": 865, " gop": 866, "48": 867, "im ": 868, "i p": 869, "rim ": 870, "irim ": 871, "sari": 872, "sari ": 873, " kar": 874, " kart": 875, "37": 876, "94": 877, "ian": 878, " li": 879, " mu": 880, "uk": 881, "he": 882, "e s": 883, " ind": 884, "gopa": 885, "opay": 886, "pay ": 887, " gopa": 888, "gopay": 889, "opay ": 890, "put": 891, "00": 892, " sar": 893, " sari": 894, "ndi": 895, "dir": 896, " man": 897, "mand": 898, "andi": 899, "ndir": 900, "diri": 901, "iri ": 902, " mand": 903, "mandi": 904, "andir": 905, "ndiri": 906, "diri ": 907, " ja": 908, "29": 909, " rt": 910, "b go": 911, "db go": 912, "pg": 913, "t l": 914, "s m": 915, "maha": 916, "i m": 917, "har": 918, "s s": 919, "il ": 920, "an ka": 921, "pi": 922, "una": 923, " rt ": 924, "mata": 925, "pb": 926, "nan": 927, "ndr": 928, "56": 929, " ru": 930, "ew": 931, "ep": 932, "bk": 933, "ve": 934, "ca": 935, " nu": 936, "kr": 937, "nf": 938, "inf": 939, "nfa": 940, "faq": 941, "aq ": 942, " inf": 943, "infa": 944, "nfaq": 945, "faq ": 946, " infa": 947, "infaq": 948, "nfaq ": 949, " pb": 950, "r ta": 951, "r tag": 952, "urs": 953, "rsu": 954, "kurs": 955, "ursu": 956, "rsus": 957, "sus ": 958, "kursu": 959, "ursus": 960, "rsus ": 961, "81": 962, "dit ": 963, "r k": 964, "am ": 965, "c a": 966, "dc a": 967, "edc a": 968, "r a": 969, "ti ": 970, "r s": 971, "da ": 972, "mus": 973, " mus": 974, "64": 975, "oj": 976, "je": 977, "goj": 978, "oje": 979, "jek": 980, " goj": 981, "goje": 982, "ojek": 983, " goje": 984, "gojek": 985, "b t": 986, "an s": 987, " kurs": 988, "rk": 989, "ket": 990, "03": 991, "stri": 992, "istri": 993, "t r": 994, "83": 995, " ke ": 996, " me": 997, "op ": 998, "tari": 999, "rtu": 1000, "u k": 1001, "kre": 1002, "red": 1003, "artu": 1004, "kred": 1005, "redi": 1006, "edit": 1007, "han k": 1008, "n kar": 1009, "kartu": 1010, "kredi": 1011, "redit": 1012, "edit ": 1013, "r b": 1014, "to ": 1015, "el ": 1016, "n a": 1017, "jek ": 1018, "ojek ": 1019, "n bu": 1020, "ket ": 1021, "10": 1022, "no": 1023, "tu ": 1024, " kr": 1025, "rtu ": 1026, "tu k": 1027, "u kr": 1028, " kre": 1029, "artu ": 1030, "rtu k": 1031, "tu kr": 1032, "u kre": 1033, " kred": 1034, "sek": 1035, "kol": 1036, " sek": 1037, "seko": 1038, "ekol": 1039, " seko": 1040, "sekol": 1041, "yan": 1042, "78": 1043, "nak": 1044, " ana": 1045, "anak": 1046, "nak ": 1047, " anak": 1048, "anak ": 1049, "61": 1050, "tn": 1051, "lina": 1052, "lina ": 1053, "ani ": 1054, "f i": 1055, "rf i": 1056, "f iu": 1057, "trf i": 1058, "rf iu": 1059, "f iur": 1060, "an a": 1061, "p sm": 1062, "hm": 1063, "ula": 1064, "ahm": 1065, "hma": 1066, "ulan": 1067, "ahma": 1068, "an bu": 1069, "a h": 1070, "ero": 1071, "via": 1072, "via ": 1073, "kola": 1074, "olah": 1075, "ekola": 1076, "kolah": 1077, "olah ": 1078, "rami": 1079, "ung": 1080, "est": 1081, " hi": 1082, "hid": 1083, " hid": 1084, "la ": 1085, "ori": 1086, "ail": 1087, "bul": 1088, " bul": 1089, "bula": 1090, "lana": 1091, "anan": 1092, "nan ": 1093, " bula": 1094, "bulan": 1095, "ulana": 1096, "lanan": 1097, "anan ": 1098, "ce": 1099, "rek": 1100, "nti": 1101, "anti": 1102, "ung ": 1103, "ers": 1104, "ss": 1105, "up ": 1106, "riu": 1107, "pp sm": 1108, "n bul": 1109, "dah": 1110, "ndah": 1111, "dah ": 1112, "ndah ": 1113, "one": 1114, "tra ": 1115, "ab ": 1116, "rab ": 1117, "grab ": 1118, "mg": 1119, "smg": 1120, "mg ": 1121, " smg": 1122, "smg ": 1123, " smg ": 1124, "rek ": 1125, "rum": 1126, "bg": 1127, "bgr": 1128, "gr ": 1129, "bgr ": 1130, " na": 1131, "n m": 1132, "oba": 1133, "t g": 1134, "sua": 1135, "uam": 1136, "n su": 1137, " sua": 1138, "suam": 1139, "uami": 1140, "man b": 1141, "nan s": 1142, "an su": 1143, "n sua": 1144, " suam": 1145, "suami": 1146, "uami ": 1147, "ol ": 1148, "raw": 1149, " raw": 1150, "rawa": 1151, "awat": 1152, "wat ": 1153, " rawa": 1154, "rawat": 1155, "awat ": 1156, " bay": 1157, "sia": 1158, "aj": 1159, "aja": 1160, " bg": 1161, " bgr": 1162, " bgr ": 1163, "ca ": 1164, " per": 1165, " ay": 1166, " aya": 1167, "db t": 1168, " db t": 1169, "br ": 1170, "n ra": 1171, "an ra": 1172, "n raw": 1173, "t t": 1174, "pan": 1175, "l s": 1176, " pan": 1177, "pus": 1178, "yu ": 1179, " ap": 1180, " or": 1181, "ndu": 1182, "andu": 1183, "fi": 1184, " fi": 1185, "bd": 1186, "s r": 1187, "bc": 1188, "rl": 1189, "bca": 1190, "bca ": 1191, "rmat": 1192, "ata ": 1193, " perm": 1194, "ermat": 1195, "rmata": 1196, "mata ": 1197, "va": 1198, "iva": 1199, "pbr": 1200, "pbr ": 1201, "ry": 1202, "sol": 1203, " sol": 1204, "sol ": 1205, " sol ": 1206, "ond": 1207, "dok": 1208, "s st": 1209, "eta": 1210, "bks": 1211, "bks ": 1212, "y k": 1213, "py k": 1214, "er a": 1215, "r an": 1216, " rek": 1217, "fer a": 1218, "er an": 1219, "wan": 1220, "ax": 1221, "kop": 1222, "opi": 1223, "kopi": 1224, "a w": 1225, " bc": 1226, "nur": 1227, " bca": 1228, " bca ": 1229, " pbr": 1230, " pbr ": 1231, "ln": 1232, "pln": 1233, "ln ": 1234, " pln": 1235, "pln ": 1236, " pln ": 1237, "ha ": 1238, "aha ": 1239, "rc": 1240, "prc": 1241, "rc ": 1242, " prc": 1243, "prc ": 1244, " prc ": 1245, "dan": 1246, "mon": 1247, "a r": 1248, "tin": 1249, "at r": 1250, " bk": 1251, " bks": 1252, " bks ": 1253, "hop": 1254, "shop": 1255, "sb": 1256, " sb": 1257, "sby": 1258, "by ": 1259, " sby": 1260, "sby ": 1261, " sby ": 1262, "zal": 1263, "lor": 1264, " zal": 1265, "zalo": 1266, "alor": 1267, "lora": 1268, " zalo": 1269, "zalor": 1270, "alora": 1271, "d ": 1272, " rek ": 1273, "stra": 1274, "sta": 1275, "bn": 1276, "lb": 1277, "plb": 1278, "lb ": 1279, "plb ": 1280, "c b": 1281, "abo": 1282, " nas": 1283, " nasi": 1284, "ji": 1285, "er k": 1286, "an m": 1287, " nur": 1288, "buk": 1289, "uka": 1290, "ala": 1291, "lap": 1292, "apa": 1293, "pak": 1294, " buk": 1295, "buka": 1296, "ukal": 1297, "kala": 1298, "alap": 1299, "lapa": 1300, "apak": 1301, "pak ": 1302, " buka": 1303, "bukal": 1304, "ukala": 1305, "kalap": 1306, "alapa": 1307, "lapak": 1308, "apak ": 1309, "ea": 1310, "nt g": 1311, "mnt g": 1312, "uf": 1313, " wat": 1314, " yam": 1315, "yama": 1316, "amah": 1317, " yama": 1318, "yamah": 1319, "amaha": 1320, "maha ": 1321, "in ": 1322, "pj": 1323, "js": 1324, "bpj": 1325, "pjs": 1326, "bpjs": 1327, "rv": 1328, "ser": 1329, "erv": 1330, "rvi": 1331, " ser": 1332, "serv": 1333, "ervi": 1334, " serv": 1335, "servi": 1336, "ju": 1337, " ju": 1338, "pup": 1339, "hop ": 1340, "shop ": 1341, "itr": 1342, "wi ": 1343, "ver": 1344, "si s": 1345, "asi s": 1346, "udi": 1347, "yk": 1348, " yk": 1349, "yk ": 1350, " yk ": 1351, "nti ": 1352, "anti ": 1353, " tn": 1354, "tng": 1355, " tng": 1356, "tng ": 1357, " tng ": 1358, "mpu": 1359, " plb": 1360, " plb ": 1361, "lab": 1362, "bor": 1363, "ato": 1364, "ium": 1365, " lab": 1366, "labo": 1367, "abor": 1368, "bora": 1369, "orat": 1370, "rato": 1371, "ator": 1372, "tori": 1373, "oriu": 1374, "rium": 1375, "ium ": 1376, " labo": 1377, "labor": 1378, "abora": 1379, "borat": 1380, "orato": 1381, "rator": 1382, "atori": 1383, "toriu": 1384, "orium": 1385, "rium ": 1386, "mbe": 1387, "mbel": 1388, "kas": 1389, "r ka": 1390, " kas": 1391, "kas ": 1392, "as r": 1393, "s rt": 1394, "fer k": 1395, "er ka": 1396, "r kas": 1397, " kas ": 1398, "kas r": 1399, "as rt": 1400, " am": 1401, " ama": 1402, "zak": 1403, "t i": 1404, " zak": 1405, "th": 1406, "rahm": 1407, " rahm": 1408, "rahma": 1409, "n p": 1410, "amo": 1411, "amon": 1412, "ndo": 1413, "inda": 1414, "indah": 1415, "k b": 1416, "t rs": 1417, "t rs ": 1418, "pk": 1419, "dpk": 1420, "pk ": 1421, " dpk": 1422, "dpk ": 1423, " dpk ": 1424, "vic": 1425, "rvic": 1426, "ervic": 1427, "app": 1428, "y p": 1429, "ora ": 1430, "lora ": 1431, "ayu": 1432, "ayu ": 1433, "fo": 1434, " fo": 1435, "24 ": 1436, "lt": 1437, "co": 1438, "s k": 1439, "yr s": 1440, "byr s": 1441, "tik": 1442, "s rt ": 1443, " he": 1444, "ike": 1445, "a k": 1446, " inda": 1447, "das": 1448, " bpj": 1449, " bpjs": 1450, "ia s": 1451, "t st": 1452, "ice": 1453, "ce ": 1454, "vice": 1455, "ice ": 1456, "rvice": 1457, "vice ": 1458, "tv": 1459, "v ": 1460, "hap": 1461, "upp": 1462, " kt": 1463, "ktv": 1464, "tv ": 1465, " hap": 1466, "happ": 1467, "appy": 1468, "py p": 1469, "pupp": 1470, "uppy": 1471, "y kt": 1472, " ktv": 1473, "ktv ": 1474, " happ": 1475, "happy": 1476, "puppy": 1477, "uppy ": 1478, "ppy k": 1479, "py kt": 1480, "y ktv": 1481, " ktv ": 1482, "aris": 1483, "ebe": 1484, "ml": 1485, "lg": 1486, " ml": 1487, "mlg": 1488, "lg ": 1489, " mlg": 1490, "mlg ": 1491, " mlg ": 1492, "l o": 1493, "o b": 1494, "n i": 1495, "an i": 1496, "lp": 1497, " lp": 1498, "lpg": 1499, "pg ": 1500, " lpg": 1501, "lpg ": 1502, " lpg ": 1503, "b c": 1504, " co": 1505, "ss ": 1506, "idu": 1507, "dup": 1508, "p k": 1509, "ya h": 1510, "a hi": 1511, "hidu": 1512, "idup": 1513, "dup ": 1514, "up k": 1515, "p ke": 1516, "aya h": 1517, "ya hi": 1518, "a hid": 1519, " hidu": 1520, "hidup": 1521, "idup ": 1522, "dup k": 1523, "up ke": 1524, "p kel": 1525, "tm": 1526, "bim": 1527, " bim": 1528, "bimb": 1529, "imbe": 1530, "bel ": 1531, " bimb": 1532, "bimbe": 1533, "imbel": 1534, "mbel ": 1535, "c s": 1536, "gu": 1537, "kt ": 1538, "ps": 1539, "dps": 1540, "ps ": 1541, " dps": 1542, "dps ": 1543, " dps ": 1544, "t la": 1545, "ro ": 1546, " ni": 1547, "e st": 1548, "e sto": 1549, "c r": 1550, "k p": 1551, "dik": 1552, "ke a": 1553, "e ad": 1554, "adik": 1555, " ke a": 1556, "ke ad": 1557, "e adi": 1558, " adik": 1559, "y pu": 1560, " pup": 1561, "appy ": 1562, "ppy p": 1563, "py pu": 1564, "y pup": 1565, " pupp": 1566, "et s": 1567, "t m": 1568, "gk": 1569, "ngk": 1570, "bet": 1571, "cim": 1572, "mb ": 1573, "cimb": 1574, "imb ": 1575, "cimb ": 1576, "mk": 1577, " mk": 1578, "mks": 1579, " mks": 1580, "mks ": 1581, " mks ": 1582, "okt": 1583, "db c": 1584, " db c": 1585, "dg": 1586, "bdg": 1587, "dg ": 1588, "bdg ": 1589, "sma": 1590, " ti": 1591, " tik": 1592, " lin": 1593, "san": 1594, "sant": 1595, "mad": 1596, "bt": 1597, "btm": 1598, "tm ": 1599, "btm ": 1600, "nl": 1601, " on": 1602, "onl": 1603, "nli": 1604, "ine": 1605, "el o": 1606, "l on": 1607, " onl": 1608, "onli": 1609, "nlin": 1610, "line": 1611, "ine ": 1612, "bel o": 1613, "el on": 1614, "l onl": 1615, " onli": 1616, "onlin": 1617, "nline": 1618, "line ": 1619, "ion": 1620, " gu": 1621, "n mu": 1622, "an mu": 1623, "a y": 1624, "jk": 1625, " jk": 1626, "jkt": 1627, " jkt": 1628, "jkt ": 1629, " jkt ": 1630, "es ": 1631, "les ": 1632, "es p": 1633, "s pr": 1634, " les ": 1635, "les p": 1636, "es pr": 1637, "mp ": 1638, "lau": 1639, "aun": 1640, "und": 1641, "laun": 1642, "aund": 1643, "undr": 1644, "laund": 1645, "aundr": 1646, "aba": 1647, "prab": 1648, "raba": 1649, "abay": 1650, " prab": 1651, "praba": 1652, "rabay": 1653, "abaya": 1654, "tin ": 1655, "a be": 1656, "vis": 1657, " vis": 1658, "vis ": 1659, " vis ": 1660, "m k": 1661, "k k": 1662, "im k": 1663, "m ke": 1664, "dik ": 1665, "a sa": 1666, "rim k": 1667, "im ke": 1668, "m ke ": 1669, "adik ": 1670, "a sar": 1671, " cim": 1672, " cimb": 1673, "i d": 1674, "man i": 1675, " bd": 1676, " bdg": 1677, " bdg ": 1678, "s ko": 1679, "m p": 1680, "dc b": 1681, "edc b": 1682, "res": 1683, " ah": 1684, "kan": 1685, "n t": 1686, " to": 1687, "pi ": 1688, "opi ": 1689, "kopi ": 1690, "a wi": 1691, "iq": 1692, "gun": 1693, "naw": 1694, " gun": 1695, "guna": 1696, "unaw": 1697, "nawa": 1698, "awan": 1699, " guna": 1700, "gunaw": 1701, "unawa": 1702, "nawan": 1703, "ush": 1704, "hol": 1705, "mush": 1706, "usho": 1707, "shol": 1708, "hola": 1709, "ran m": 1710, "n mus": 1711, " mush": 1712, "musho": 1713, "ushol": 1714, "shola": 1715, "t in": 1716, "riv": 1717, "vat": 1718, "priv": 1719, "riva": 1720, "ivat": 1721, "vat ": 1722, "s pri": 1723, " priv": 1724, "priva": 1725, "rivat": 1726, "ivat ": 1727, "smp": 1728, " smp": 1729, "smp ": 1730, "p smp": 1731, " smp ": 1732, "dry": 1733, "ry ": 1734, " lau": 1735, "ndry": 1736, "dry ": 1737, " laun": 1738, "undry": 1739, "ndry ": 1740, "ark": 1741, "rke": 1742, "rmar": 1743, "mark": 1744, "arke": 1745, "rket": 1746, "ermar": 1747, "rmark": 1748, "marke": 1749, "arket": 1750, "rket ": 1751, "h s": 1752, "ah s": 1753, "ahar": 1754, "at rs": 1755, "ret": 1756, "tai": 1757, " ret": 1758, "reta": 1759, "etai": 1760, "tail": 1761, "ail ": 1762, " reta": 1763, "retai": 1764, "etail": 1765, "tail ": 1766, "g p": 1767, "ng p": 1768, " pus": 1769, "osi": 1770, "i r": 1771, "pn": 1772, "bpn": 1773, "pn ": 1774, " bpn": 1775, "bpn ": 1776, " bpn ": 1777, "ub": 1778, "ibu": 1779, "bu ": 1780, "n ib": 1781, " ibu": 1782, "ibu ": 1783, "an ib": 1784, "n ibu": 1785, " ibu ": 1786, "stra ": 1787, "sal": 1788, "lon": 1789, "salo": 1790, "alon": 1791, "salon": 1792, "kom": 1793, "omp": 1794, "us k": 1795, " kom": 1796, "komp": 1797, "ter ": 1798, "sus k": 1799, "us ko": 1800, "s kom": 1801, " komp": 1802, "an t": 1803, "di ": 1804, "a ra": 1805, " bt": 1806, " btm": 1807, " btm ": 1808, "t a": 1809, "wan ": 1810, "awan ": 1811, "ola ": 1812, "hola ": 1813, "ate": 1814, "mt l": 1815, "pmt l": 1816, " dan": 1817, "dana": 1818, "mon ": 1819, " dana": 1820, "rob": 1821, "bat": 1822, " ber": 1823, "bero": 1824, "erob": 1825, "roba": 1826, "obat": 1827, " bero": 1828, "berob": 1829, "eroba": 1830, "robat": 1831, "ar t": 1832, " baya": 1833, "yar t": 1834, "ar ta": 1835, "era": 1836, "az": 1837, "zo": 1838, "p a": 1839, "maz": 1840, "azo": 1841, "zon": 1842, "np a": 1843, "amaz": 1844, "mazo": 1845, "azon": 1846, "zone": 1847, "one ": 1848, " np a": 1849, "amazo": 1850, "mazon": 1851, "azone": 1852, "zone ": 1853, "it m": 1854, "t ma": 1855, "dit m": 1856, "it ma": 1857, "t man": 1858, "dew": 1859, "ewi": 1860, " dew": 1861, "dewi": 1862, "ewi ": 1863, " dewi": 1864, "dewi ": 1865, "al s": 1866, "ayan": 1867, "sos": 1868, "ial": 1869, "i so": 1870, " sos": 1871, "sosi": 1872, "osia": 1873, "sial": 1874, "ial ": 1875, "si so": 1876, "i sos": 1877, " sosi": 1878, "sosia": 1879, "osial": 1880, "sial ": 1881, "ns ": 1882, " 24": 1883, "a o": 1884, "n l": 1885, " sal": 1886, "lon ": 1887, " salo": 1888, "alon ": 1889, "ute": 1890, "ompu": 1891, "mput": 1892, "pute": 1893, "uter": 1894, "kompu": 1895, "omput": 1896, "mpute": 1897, "puter": 1898, "uter ": 1899, " rum": 1900, "ruma": 1901, "umah": 1902, "mah ": 1903, " ruma": 1904, "rumah": 1905, "umah ": 1906, "xi": 1907, "axi": 1908, "c l": 1909, "oko": 1910, "mt b": 1911, "pmt b": 1912, "dc s": 1913, "edc s": 1914, "ila": 1915, " yu": 1916, "q j": 1917, "aq j": 1918, "faq j": 1919, "nam": 1920, "anam": 1921, "namo": 1922, "danam": 1923, "anamo": 1924, "namon": 1925, "amon ": 1926, "f g": 1927, "rf g": 1928, "f go": 1929, "trf g": 1930, "rf go": 1931, "f gop": 1932, "f d": 1933, "sf d": 1934, "rsf d": 1935, "dc r": 1936, "edc r": 1937, "k be": 1938, "kah": 1939, "utr": 1940, "putr": 1941, "utri": 1942, "putri": 1943, "utri ": 1944, "ya b": 1945, "bat ": 1946, "aya b": 1947, "ya be": 1948, "a ber": 1949, "obat ": 1950, "n bp": 1951, "an bp": 1952, "e b": 1953, " amaz": 1954, "jum": 1955, " jum": 1956, "juma": 1957, "umat": 1958, " juma": 1959, "jumat": 1960, "t ta": 1961, "t tag": 1962, "s h": 1963, "cit": 1964, "ang p": 1965, "t h": 1966, " si": 1967, "stu": 1968, "tud": 1969, "dio": 1970, "io ": 1971, "ans ": 1972, "ns s": 1973, " stu": 1974, "stud": 1975, "tudi": 1976, "udio": 1977, "dio ": 1978, "io b": 1979, "o ba": 1980, " ban": 1981, "rans ": 1982, "ans s": 1983, "ns st": 1984, "s stu": 1985, " stud": 1986, "studi": 1987, "tudio": 1988, "udio ": 1989, "dio b": 1990, "io ba": 1991, "o ban": 1992, "na m": 1993, "hy": 1994, "lest": 1995, "esta": 1996, "star": 1997, " lest": 1998, "lesta": 1999, "estar": 2000, "stari": 2001, "tari ": 2002, "ty": 2003, "tam": 2004, "sur": 2005, "n ta": 2006, "an ta": 2007, "n tag": 2008, "dc l": 2009, "edc l": 2010, "b gop": 2011, "b m": 2012, "db m": 2013, " db m": 2014, "rs m": 2015, " rs m": 2016, "ki ": 2017, "spo": 2018, " spo": 2019, "h d": 2020, "ah d": 2021, "lah d": 2022, "cr": 2023, "kat": 2024, "zaka": 2025, "akat": 2026, "kat ": 2027, "at i": 2028, " zaka": 2029, "zakat": 2030, "akat ": 2031, "kat i": 2032, "at in": 2033, "t inf": 2034, "i t": 2035, "f de": 2036, "sf de": 2037, "f deb": 2038, "sed": 2039, "ede": 2040, "dek": 2041, "eka": 2042, "mt s": 2043, " sed": 2044, "sede": 2045, "edek": 2046, "deka": 2047, "ekah": 2048, "kah ": 2049, "pmt s": 2050, " sede": 2051, "sedek": 2052, "edeka": 2053, "dekah": 2054, "ekah ": 2055, "m u": 2056, "g i": 2057, " is": 2058, "im u": 2059, "m ua": 2060, "ng i": 2061, "g is": 2062, " ist": 2063, " put": 2064, "rim u": 2065, "im ua": 2066, "m uan": 2067, "ang i": 2068, "ng is": 2069, "g ist": 2070, " istr": 2071, "stri ": 2072, " putr": 2073, "ent": 2074, "ent ": 2075, "n bpj": 2076, "era ": 2077, "pt": 2078, "q ju": 2079, "aq ju": 2080, "q jum": 2081, " cit": 2082, "gka": 2083, "g pa": 2084, "pang": 2085, "angk": 2086, "ngka": 2087, "gkal": 2088, "kal ": 2089, "l se": 2090, "ng pa": 2091, "g pan": 2092, " pang": 2093, "pangk": 2094, "angka": 2095, "ngkal": 2096, "gkal ": 2097, "kal s": 2098, "al se": 2099, "l sek": 2100, "l p": 2101, " ram": 2102, " du": 2103, "duf": 2104, "ufa": 2105, "fan": 2106, " duf": 2107, "dufa": 2108, "ufan": 2109, " dufa": 2110, "dufan": 2111, "g j": 2112, "ng j": 2113, "n an": 2114, "ri r": 2115, "a ma": 2116, " ora": 2117, "oram": 2118, " oram": 2119, "orami": 2120, "rami ": 2121, "y g": 2122, "py g": 2123, "ipy g": 2124, "y b": 2125, "dun": 2126, "band": 2127, "ndun": 2128, "dung": 2129, " band": 2130, "bandu": 2131, "andun": 2132, "ndung": 2133, "dung ": 2134, "t sp": 2135, "aki": 2136, "kit": 2137, "nda ": 2138, "rik": 2139, "rik ": 2140, "ik p": 2141, "ll": 2142, "a rah": 2143, "kos": 2144, "os ": 2145, "ak k": 2146, "k ko": 2147, " kos": 2148, "kos ": 2149, "r ana": 2150, "nak k": 2151, "ak ko": 2152, "k kos": 2153, " kos ": 2154, "day": 2155, "eng": 2156, "i pr": 2157, "med": 2158, "por": 2159, "ort": 2160, "spor": 2161, "port": 2162, "ort ": 2163, " spor": 2164, "sport": 2165, "port ": 2166, "wis": 2167, "isu": 2168, "sud": 2169, "uda": 2170, "ya w": 2171, " wis": 2172, "wisu": 2173, "isud": 2174, "suda": 2175, "uda ": 2176, "aya w": 2177, "ya wi": 2178, "a wis": 2179, " wisu": 2180, "wisud": 2181, "isuda": 2182, "suda ": 2183, "p se": 2184, " cr": 2185, "crb": 2186, "rb ": 2187, " crb": 2188, "crb ": 2189, " crb ": 2190, "ton": 2191, "ono": 2192, "no ": 2193, "tono": 2194, "ono ": 2195, "tono ": 2196, " fa": 2197, "b goj": 2198, "n g": 2199, "an g": 2200, "a t": 2201, "wate": 2202, "ater": 2203, " wate": 2204, "water": 2205, "rut": 2206, " rut": 2207, "ida": 2208, "wat r": 2209, "rn": 2210, "rni": 2211, "dep": 2212, " dep": 2213, "er b": 2214, "r be": 2215, "fer b": 2216, "er be": 2217, "r bel": 2218, "ana ": 2219, "fan ": 2220, "ufan ": 2221, "t gr": 2222, "nt gr": 2223, "t gra": 2224, "b z": 2225, "db z": 2226, "b za": 2227, " db z": 2228, "db za": 2229, "an an": 2230, "f 3": 2231, "rf 3": 2232, "trf 3": 2233, "mat ": 2234, "umat ": 2235, "k 2": 2236, "ran b": 2237, "hari": 2238, "end": 2239, "arl": 2240, "rli": 2241, " mar": 2242, "marl": 2243, "arli": 2244, "rlin": 2245, " lina": 2246, "ina m": 2247, "na ma": 2248, "a mar": 2249, " marl": 2250, "marli": 2251, "arlin": 2252, "rlina": 2253, "ko ": 2254, "has": 2255, "lis": 2256, "an l": 2257, "n li": 2258, " lis": 2259, "list": 2260, "trik": 2261, "k pl": 2262, "han l": 2263, "an li": 2264, "n lis": 2265, " list": 2266, "listr": 2267, "strik": 2268, "trik ": 2269, "rik p": 2270, "ik pl": 2271, "k pln": 2272, "f 5": 2273, "rf 5": 2274, "trf 5": 2275, "ian ": 2276, "nto": 2277, "di s": 2278, "i su": 2279, "anto": 2280, "santo": 2281, "hmad": 2282, "ahmad": 2283, "t p": 2284, "mit": 2285, "cu": 2286, "uc": 2287, " cu": 2288, "cuc": 2289, "uci": 2290, "ci ": 2291, " mo": 2292, "mob": 2293, "obi": 2294, "bil": 2295, " cuc": 2296, "cuci": 2297, "uci ": 2298, "ci m": 2299, "i mo": 2300, " mob": 2301, "mobi": 2302, "obil": 2303, "bil ": 2304, " cuci": 2305, "cuci ": 2306, "uci m": 2307, "ci mo": 2308, "i mob": 2309, " mobi": 2310, "mobil": 2311, "obil ": 2312, " ok": 2313, "dis": 2314, "s me": 2315, " med": 2316, "medi": 2317, "edis": 2318, "dist": 2319, "rs me": 2320, "s med": 2321, " medi": 2322, "medis": 2323, "edist": 2324, "distr": 2325, "istra": 2326, "a u": 2327, "ati": 2328, "daya": 2329, "asa": 2330, "asar": 2331, "i sa": 2332, " kop": 2333, " kopi": 2334, " har": 2335, "i a": 2336, "man a": 2337, "erb": 2338, "rbo": 2339, "bom": 2340, "om ": 2341, "terb": 2342, "erbo": 2343, "rbom": 2344, "bom ": 2345, "aterb": 2346, "terbo": 2347, "erbom": 2348, "rbom ": 2349, "yr t": 2350, "byr t": 2351, "yr ta": 2352, "k y": 2353, "uti": 2354, "ruti": 2355, "utin": 2356, " ruti": 2357, "rutin": 2358, "utin ": 2359, "ept": 2360, "pt ": 2361, "dept": 2362, "ept ": 2363, "pt s": 2364, " dept": 2365, "dept ": 2366, "ept s": 2367, "pt st": 2368, "t sto": 2369, " no": 2370, "not": 2371, "ota": 2372, " pp": 2373, "ppa": 2374, "pat": 2375, " not": 2376, "nota": 2377, "otar": 2378, "s pp": 2379, " ppa": 2380, "ppat": 2381, "pat ": 2382, " nota": 2383, "notar": 2384, "otari": 2385, "taris": 2386, "aris ": 2387, "is pp": 2388, "s ppa": 2389, " ppat": 2390, "ppat ": 2391, "ja k": 2392, "a ke": 2393, "nja k": 2394, "ja ke": 2395, "a kel": 2396, "pit": 2397, "a pu": 2398, " au": 2399, "aut": 2400, "uto": 2401, "tod": 2402, "ode": 2403, " aut": 2404, "auto": 2405, "utod": 2406, "tode": 2407, "odeb": 2408, "debe": 2409, "ebet": 2410, "bet ": 2411, " auto": 2412, "autod": 2413, "utode": 2414, "todeb": 2415, "odebe": 2416, "debet": 2417, "ebet ": 2418, "f u": 2419, "jaj": 2420, "jan": 2421, "uri": 2422, "rf u": 2423, "f ua": 2424, "g ja": 2425, " jaj": 2426, "jaja": 2427, "ajan": 2428, "jan ": 2429, "nuri": 2430, "i ra": 2431, "raha": 2432, "trf u": 2433, "rf ua": 2434, "f uan": 2435, "ang j": 2436, "ng ja": 2437, "g jaj": 2438, " jaja": 2439, "jajan": 2440, "ajan ": 2441, "jan a": 2442, "n ana": 2443, " nuri": 2444, "ban ": 2445, "oo": 2446, "ood": 2447, "ayam": 2448, "yam ": 2449, " ayam": 2450, "ayam ": 2451, "i de": 2452, "bl": 2453, "rep": 2454, "ic ": 2455, " as": 2456, "py b": 2457, " br": 2458, "bri": 2459, "vers": 2460, "bar": 2461, "arb": 2462, "rbe": 2463, "rsh": 2464, " bar": 2465, "barb": 2466, "arbe": 2467, "rber": 2468, "bers": 2469, "ersh": 2470, "rsho": 2471, " barb": 2472, "barbe": 2473, "arber": 2474, "rbers": 2475, "bersh": 2476, "ersho": 2477, "rshop": 2478, "bni": 2479, "bni ": 2480, "usa": 2481, " sus": 2482, "susa": 2483, "usan": 2484, "i sus": 2485, " susa": 2486, "susan": 2487, "usant": 2488, "sun": 2489, "nat": 2490, "tan": 2491, "suna": 2492, "unat": 2493, "nata": 2494, "atan": 2495, "tan ": 2496, "sunat": 2497, "unata": 2498, "natan": 2499, "atan ": 2500, "fit": 2501, " fit": 2502, "fitr": 2503, "itri": 2504, " fitr": 2505, "fitri": 2506, "um p": 2507, "t lab": 2508, "uj": 2509, " uj": 2510, "n n": 2511, "ya u": 2512, "a uj": 2513, "an n": 2514, "n na": 2515, "aya u": 2516, "ya uj": 2517, "an na": 2518, "n nas": 2519, "mak": 2520, " mak": 2521, "maka": 2522, "akan": 2523, "kan ": 2524, " maka": 2525, "makan": 2526, "akan ": 2527, "pot": 2528, "t c": 2529, "h da": 2530, " das": 2531, "dasa": 2532, "sar ": 2533, "pp se": 2534, "p sek": 2535, "ah da": 2536, "h das": 2537, " dasa": 2538, "dasar": 2539, "asar ": 2540, "yr b": 2541, "byr b": 2542, "lia": 2543, "a n": 2544, "mt la": 2545, "an p": 2546, "c k": 2547, "dc k": 2548, "us m": 2549, "k ya": 2550, "edc k": 2551, "dra": 2552, "ndra": 2553, "dra ": 2554, "ndra ": 2555, "c rs": 2556, "dc rs": 2557, "c rs ": 2558, "db p": 2559, " db p": 2560, "bs": 2561, "tk": 2562, "urn": 2563, "nia": 2564, "kurn": 2565, "urni": 2566, "rnia": 2567, " kurn": 2568, "kurni": 2569, "urnia": 2570, " via": 2571, " via ": 2572, "c h": 2573, "l pr": 2574, "rama": 2575, "ini": 2576, "ini ": 2577, "hay": 2578, "uri ": 2579, "ahay": 2580, "hayu": 2581, "nuri ": 2582, "uri r": 2583, "ri ra": 2584, "i rah": 2585, " raha": 2586, "rahay": 2587, "ahayu": 2588, "hayu ": 2589, " um": 2590, "od ": 2591, " mi": 2592, " ur": 2593, "urb": 2594, "rba": 2595, "epu": 2596, "pub": 2597, "ubl": 2598, "bli": 2599, "lic": 2600, " urb": 2601, "urba": 2602, "rban": 2603, "n re": 2604, " rep": 2605, "repu": 2606, "epub": 2607, "publ": 2608, "ubli": 2609, "blic": 2610, "lic ": 2611, " urba": 2612, "urban": 2613, "rban ": 2614, "ban r": 2615, "an re": 2616, "n rep": 2617, " repu": 2618, "repub": 2619, "epubl": 2620, "publi": 2621, "ublic": 2622, "blic ": 2623, "bh": 2624, "abh": 2625, "bhe": 2626, "hea": 2627, "eal": 2628, "alt": 2629, "lth": 2630, "th ": 2631, "rabh": 2632, "abhe": 2633, "bhea": 2634, "heal": 2635, "ealt": 2636, "alth": 2637, "lth ": 2638, "grabh": 2639, "rabhe": 2640, "abhea": 2641, "bheal": 2642, "healt": 2643, "ealth": 2644, "alth ": 2645, "oto": 2646, "ipy b": 2647, " bri": 2648, "bri ": 2649, " bri ": 2650, " gi": 2651, "b gr": 2652, "db gr": 2653, "b gra": 2654, " bn": 2655, " bni": 2656, " bni ": 2657, " sun": 2658, " suna": 2659, "dh": 2660, "adh": 2661, "dha": 2662, "madh": 2663, "adha": 2664, "dhan": 2665, "madha": 2666, "adhan": 2667, "m pr": 2668, "pram": 2669, "amit": 2670, "ium p": 2671, "um pr": 2672, "m pra": 2673, " pram": 2674, "prami": 2675, "ramit": 2676, "it b": 2677, "t bc": 2678, "dit b": 2679, "it bc": 2680, "t bca": 2681, "b ma": 2682, "db ma": 2683, "i j": 2684, "t d": 2685, "uji": 2686, "jia": 2687, "sio": 2688, "nal": 2689, " uji": 2690, "ujia": 2691, "jian": 2692, "asio": 2693, "sion": 2694, "iona": 2695, "onal": 2696, "nal ": 2697, "a uji": 2698, " ujia": 2699, "ujian": 2700, "jian ": 2701, "ian n": 2702, "nasio": 2703, "asion": 2704, "siona": 2705, "ional": 2706, "onal ": 2707, "apo": 2708, "ote": 2709, "tek": 2710, " apo": 2711, "apot": 2712, "pote": 2713, "otek": 2714, "ek 2": 2715, " apot": 2716, "apote": 2717, "potek": 2718, "gn": 2719, " ga": 2720, "gas": 2721, " pg": 2722, "pgn": 2723, "gn ": 2724, "n ga": 2725, " gas": 2726, "gas ": 2727, "as p": 2728, "s pg": 2729, " pgn": 2730, "pgn ": 2731, "han g": 2732, "an ga": 2733, "n gas": 2734, " gas ": 2735, "gas p": 2736, "as pg": 2737, "s pgn": 2738, " pgn ": 2739, "y s": 2740, "usi": 2741, "sik": 2742, "s mu": 2743, "musi": 2744, "usik": 2745, "sik ": 2746, "ik y": 2747, "sus m": 2748, "us mu": 2749, "s mus": 2750, " musi": 2751, "musik": 2752, "usik ": 2753, "sik y": 2754, "ik ya": 2755, "k yam": 2756, "o s": 2757, " po": 2758, "pon": 2759, "k i": 2760, "rs p": 2761, "s po": 2762, " pon": 2763, "pond": 2764, "ondo": 2765, "ndok": 2766, " rs p": 2767, "rs po": 2768, "s pon": 2769, " pond": 2770, "pondo": 2771, "ondok": 2772, "s a": 2773, "jst": 2774, "stk": 2775, "tk ": 2776, "pjst": 2777, "jstk": 2778, "stk ": 2779, "bpjst": 2780, "pjstk": 2781, "jstk ": 2782, "nia ": 2783, "rnia ": 2784, "nia s": 2785, "ia sa": 2786, "m-": 2787, "r v": 2788, " m-": 2789, "m-b": 2790, "yr v": 2791, "r vi": 2792, "ia m": 2793, "a m-": 2794, " m-b": 2795, "m-ba": 2796, "byr v": 2797, "yr vi": 2798, "r via": 2799, "via m": 2800, "ia m-": 2801, "a m-b": 2802, " m-ba": 2803, "m-ban": 2804, "dc h": 2805, "edc h": 2806, "b pe": 2807, "db pe": 2808, "nt t": 2809, " x": 2810, "xl": 2811, " xl": 2812, "xl ": 2813, " xl ": 2814, "xl p": 2815, " xl p": 2816, "xl pr": 2817, "l pra": 2818, " rama": 2819, "kte": 2820, "erk": 2821, "rku": 2822, "ku ": 2823, " dok": 2824, "dokt": 2825, "okte": 2826, "kter": 2827, "terk": 2828, "erku": 2829, "rku ": 2830, " dokt": 2831, "dokte": 2832, "okter": 2833, "kterk": 2834, "terku": 2835, "erku ": 2836, "foo": 2837, " foo": 2838, "food": 2839, "ood ": 2840, " food": 2841, "food ": 2842, "k 24": 2843, "nsu": 2844, "i g": 2845, "top": 2846, "i n": 2847, "nv": 2848, "con": 2849, "onv": 2850, "nve": 2851, "rse": 2852, "se ": 2853, " con": 2854, "conv": 2855, "onve": 2856, "nver": 2857, "erse": 2858, "rse ": 2859, "se s": 2860, " conv": 2861, "conve": 2862, "onver": 2863, "nvers": 2864, "verse": 2865, "erse ": 2866, "rse s": 2867, "se st": 2868, "prat": 2869, "rata": 2870, "atam": 2871, "tama": 2872, "ama ": 2873, " prat": 2874, "prata": 2875, "ratam": 2876, "atama": 2877, "tama ": 2878, "pre": 2879, "ass": 2880, " ho": 2881, "hon": 2882, " aha": 2883, "ahas": 2884, "hass": 2885, "ass ": 2886, "ss h": 2887, "s ho": 2888, " hon": 2889, "hond": 2890, "onda": 2891, " ahas": 2892, "ahass": 2893, "hass ": 2894, "ass h": 2895, "ss ho": 2896, "s hon": 2897, " hond": 2898, "honda": 2899, "onda ": 2900, " yan": 2901, "yant": 2902, "ti p": 2903, "i pe": 2904, " yant": 2905, "yanti": 2906, "nti p": 2907, "ti pe": 2908, "i per": 2909, "ac": 2910, " ac": 2911, "adi ": 2912, "war": 2913, "aru": 2914, "run": 2915, " war": 2916, "waru": 2917, "arun": 2918, "rung": 2919, " waru": 2920, "warun": 2921, "arung": 2922, "rung ": 2923, "mita": 2924, "amita": 2925, "mita ": 2926, "han t": 2927, "46 ": 2928, "4 j": 2929, "tek ": 2930, "otek ": 2931, "sk": 2932, "ske": 2933, "kes": 2934, "esto": 2935, "a nu": 2936, "a nur": 2937, "b bu": 2938, "db bu": 2939, "b buk": 2940, "yah": 2941, "uni": 2942, "n ay": 2943, "ayah": 2944, "yah ": 2945, "an ay": 2946, "n aya": 2947, " ayah": 2948, "ayah ": 2949, "ha s": 2950, "aha s": 2951, "her": 2952, "sup": 2953, "upe": 2954, " her": 2955, "hero": 2956, "ero ": 2957, "ro s": 2958, "o su": 2959, " sup": 2960, "supe": 2961, "uper": 2962, " hero": 2963, "hero ": 2964, "ero s": 2965, "ro su": 2966, "o sup": 2967, " supe": 2968, "super": 2969, "uperm": 2970, "c n": 2971, "b d": 2972, "db d": 2973, " db d": 2974, "ok ": 2975, "dok ": 2976, "ok i": 2977, "k in": 2978, "ndok ": 2979, "dok i": 2980, "k ind": 2981, "ri m": 2982, "tri m": 2983, " bs": 2984, "bsi": 2985, " bsi": 2986, "bsi ": 2987, " bsi ": 2988, "s ad": 2989, "as s": 2990, "ie": 2991, "md": 2992, "dn": 2993, "mie": 2994, "ie ": 2995, " md": 2996, "mdn": 2997, "dn ": 2998, " mie": 2999, "mie ": 3000, " mdn": 3001, "mdn ": 3002, " mie ": 3003, " mdn ": 3004, "c am": 3005, "dc am": 3006, "c ama": 3007, "b tr": 3008, "db tr": 3009, "b trf": 3010, "b sp": 3011, "db sp": 3012, "b ci": 3013, "db ci": 3014, "b cim": 3015, "t u": 3016, "i l": 3017, "tike": 3018, "iket": 3019, " tike": 3020, "tiket": 3021, "iket ": 3022, "ac ": 3023, "ce a": 3024, "e ac": 3025, " ac ": 3026, "ice a": 3027, "ce ac": 3028, "e ac ": 3029, "t k": 3030, "c p": 3031, "e r": 3032, "anda": 3033, "u a": 3034, "gor": 3035, "ren": 3036, " gor": 3037, "gore": 3038, "oren": 3039, "reng": 3040, "eng ": 3041, " gore": 3042, "goren": 3043, "oreng": 3044, "reng ": 3045, "rin": 3046, "b man": 3047, "si j": 3048, "b bi": 3049, "db bi": 3050, "c sp": 3051, "f 1": 3052, "rf 1": 3053, "trf 1": 3054, "jam": 3055, " 24 ": 3056, "24 j": 3057, "4 ja": 3058, " jam": 3059, "jam ": 3060, "tek 2": 3061, "ek 24": 3062, "k 24 ": 3063, " 24 j": 3064, "24 ja": 3065, "4 jam": 3066, " jam ": 3067, "i i": 3068, "n rt": 3069, "an rt": 3070, "n rt ": 3071, "qi": 3072, "qa": 3073, " aq": 3074, "aqi": 3075, "qiq": 3076, "iqa": 3077, "qah": 3078, " aqi": 3079, "aqiq": 3080, "qiqa": 3081, "iqah": 3082, "qah ": 3083, " aqiq": 3084, "aqiqa": 3085, "qiqah": 3086, "iqah ": 3087, "usk": 3088, "esm": 3089, "mas": 3090, "pusk": 3091, "uske": 3092, "skes": 3093, "kesm": 3094, "esma": 3095, "smas": 3096, "mas ": 3097, "puske": 3098, "uskes": 3099, "skesm": 3100, "kesma": 3101, "esmas": 3102, "smas ": 3103, "uz": 3104, " res": 3105, "rest": 3106, "sto ": 3107, " rest": 3108, "resto": 3109, "esto ": 3110, "a g": 3111, "r bi": 3112, "yr bi": 3113, "59 ": 3114, "ira": 3115, "ra y": 3116, "a yu": 3117, "usu": 3118, "nik": 3119, "ok in": 3120, "i ma": 3121, " mah": 3122, "ri ma": 3123, "i mah": 3124, " maha": 3125, "mahar": 3126, "i 8": 3127, "c w": 3128, "dc w": 3129, "c wa": 3130, "edc w": 3131, "dc wa": 3132, "a se": 3133, "ha se": 3134, "a ser": 3135, "c ha": 3136, "dc ha": 3137, "c hap": 3138, " sh": 3139, "mnt t": 3140, "nt ta": 3141, "c d": 3142, "dc d": 3143, "edc d": 3144, "b zal": 3145, "a a": 3146, "aga": 3147, "b se": 3148, "db se": 3149, "apy": 3150, " apy": 3151, "apy ": 3152, " apy ": 3153, "f 8": 3154, "rf 8": 3155, "trf 8": 3156, "rd": 3157, "c u": 3158, "c m": 3159, "i 2": 3160, "b spp": 3161, "nin": 3162, "ri n": 3163, "i ni": 3164, " nin": 3165, "ari n": 3166, "ri ni": 3167, "i nin": 3168, "n f": 3169, "n fi": 3170, "sak": 3171, "h sa": 3172, " sak": 3173, "t um": 3174, "mah s": 3175, "ah sa": 3176, "h sak": 3177, "b 7": 3178, "s t": 3179, "m c": 3180, "ito": 3181, "ito ": 3182, "r se": 3183, "yr se": 3184, "tok": 3185, "t bi": 3186, "mt bi": 3187, "iw": 3188, "asu": 3189, "nsi": 3190, " ji": 3191, "jiw": 3192, "iwa": 3193, "wa ": 3194, " asu": 3195, "asur": 3196, "sura": 3197, "ansi": 3198, "nsi ": 3199, "i ji": 3200, " jiw": 3201, "jiwa": 3202, "iwa ": 3203, " asur": 3204, "asura": 3205, "suran": 3206, "urans": 3207, "ransi": 3208, "ansi ": 3209, "nsi j": 3210, "si ji": 3211, "i jiw": 3212, " jiwa": 3213, "jiwa ": 3214, "i b": 3215, "ri i": 3216, "i in": 3217, "ari i": 3218, "ri in": 3219, "i ind": 3220, " 26": 3221, " pusk": 3222, "n w": 3223, "an w": 3224, "hr": 3225, "zah": 3226, "ahr": 3227, "hra": 3228, "url": 3229, "rla": 3230, "lai": 3231, " zah": 3232, "zahr": 3233, "ahra": 3234, "nurl": 3235, "urla": 3236, "rlai": 3237, "lail": 3238, "aila": 3239, "ila ": 3240, " zahr": 3241, "zahra": 3242, "nurla": 3243, "urlai": 3244, "rlail": 3245, "laila": 3246, "aila ": 3247, " 84": 3248, " ir": 3249, "yun": 3250, "nit": 3251, " ira": 3252, "ira ": 3253, " yun": 3254, "yuni": 3255, "unit": 3256, "nita": 3257, " ira ": 3258, "ira y": 3259, "ra yu": 3260, "a yun": 3261, " yuni": 3262, "yunit": 3263, "unita": 3264, "nita ": 3265, "ai ": 3266, "py s": 3267, "ipy s": 3268, "62 ": 3269, " nik": 3270, "nike": 3271, " nike": 3272, "r 3": 3273, "men": 3274, " 41": 3275, "w ": 3276, "re b": 3277, "ore b": 3278, "pet": 3279, " pet": 3280, "pet ": 3281, "t sh": 3282, " sho": 3283, " pet ": 3284, "pet s": 3285, "et sh": 3286, " shop": 3287, "c du": 3288, "dc du": 3289, "c duf": 3290, "f 0": 3291, "750": 3292, "rf 0": 3293, "trf 0": 3294, "l v": 3295, "nag": 3296, "naga": 3297, "indo": 3298, " indo": 3299, "jak": 3300, " 82": 3301, "ord": 3302, "rde": 3303, "der": 3304, " ord": 3305, "orde": 3306, "rder": 3307, "der ": 3308, " orde": 3309, "order": 3310, "rder ": 3311, "dv": 3312, "adv": 3313, "dve": 3314, "ven": 3315, "rs a": 3316, " adv": 3317, "adve": 3318, "dven": 3319, "vent": 3320, " rs a": 3321, "rs ad": 3322, "s adv": 3323, " adve": 3324, "adven": 3325, "dvent": 3326, "vent ": 3327, "tas": 3328, "b 6": 3329, "ngr": 3330, "gru": 3331, "ning": 3332, "ingr": 3333, "ngru": 3334, "grum": 3335, "rum ": 3336, " ning": 3337, "ningr": 3338, "ingru": 3339, "ngrum": 3340, "grum ": 3341, "cb": 3342, " cb": 3343, "cbn": 3344, "bn ": 3345, "fib": 3346, "ibe": 3347, " cbn": 3348, "cbn ": 3349, "bn f": 3350, " fib": 3351, "fibe": 3352, "iber": 3353, "ber ": 3354, " cbn ": 3355, "cbn f": 3356, "bn fi": 3357, "n fib": 3358, " fibe": 3359, "fiber": 3360, "iber ": 3361, "umu": 3362, "mum": 3363, "saki": 3364, "akit": 3365, "kit ": 3366, "it u": 3367, " umu": 3368, "umum": 3369, "mum ": 3370, " saki": 3371, "sakit": 3372, "akit ": 3373, "kit u": 3374, "it um": 3375, "t umu": 3376, " umum": 3377, "umum ": 3378, "js ": 3379, "pjs ": 3380, "bpjs ": 3381, "db 7": 3382, " db 7": 3383, "mt k": 3384, "pmt k": 3385, "c la": 3386, "um c": 3387, "m ci": 3388, "cito": 3389, "dc la": 3390, "ium c": 3391, "um ci": 3392, "m cit": 3393, " cito": 3394, "cito ": 3395, "p u": 3396, "b su": 3397, "db su": 3398, "b sun": 3399, "hara": 3400, "rani": 3401, "ahara": 3402, "haran": 3403, "arani": 3404, "rani ": 3405, "du ": 3406, "ity": 3407, "pand": 3408, "ndu ": 3409, "du a": 3410, "u ad": 3411, "adit": 3412, " pand": 3413, "pandu": 3414, "andu ": 3415, "ndu a": 3416, "du ad": 3417, "u adi": 3418, " adit": 3419, " ax": 3420, "xis": 3421, " axi": 3422, "axis": 3423, "xis ": 3424, " axis": 3425, "axis ": 3426, "fot": 3427, " fot": 3428, "foto": 3429, "otok": 3430, "toko": 3431, "okop": 3432, " foto": 3433, "fotok": 3434, "otoko": 3435, "tokop": 3436, "okopi": 3437, "ug": 3438, "20 ": 3439, "lla": 3440, "llah": 3441, "llah ": 3442, "g t": 3443, "ng t": 3444, "c bi": 3445, "dc bi": 3446, "a f": 3447, "dc p": 3448, "edc p": 3449, "hen": 3450, " hen": 3451, "hend": 3452, "endr": 3453, "ra g": 3454, "a gu": 3455, " hend": 3456, "hendr": 3457, "endra": 3458, "dra g": 3459, "ra gu": 3460, "a gun": 3461, "wib": 3462, "934": 3463, "hra ": 3464, "ra n": 3465, "ahra ": 3466, "hra n": 3467, "ra nu": 3468, " nurl": 3469, "t z": 3470, "t za": 3471, " bo": 3472, "bob": 3473, "ba ": 3474, " th": 3475, "tha": 3476, "hai": 3477, " te": 3478, "tea": 3479, "ea ": 3480, " bob": 3481, "boba": 3482, "oba ": 3483, "ba t": 3484, "a th": 3485, " tha": 3486, "thai": 3487, "hai ": 3488, "ai t": 3489, "i te": 3490, " tea": 3491, "tea ": 3492, " boba": 3493, "boba ": 3494, "oba t": 3495, "ba th": 3496, "a tha": 3497, " thai": 3498, "thai ": 3499, "hai t": 3500, "ai te": 3501, "i tea": 3502, " tea ": 3503, "t go": 3504, "y sp": 3505, "py sp": 3506, "y spp": 3507, "e p": 3508, "ike ": 3509, "ke s": 3510, "nike ": 3511, "ike s": 3512, " 65": 3513, "f 4": 3514, "rf 4": 3515, "trf 4": 3516, "bat r": 3517, " ne": 3518, "new": 3519, "ew ": 3520, "w e": 3521, " er": 3522, "dc n": 3523, " new": 3524, "new ": 3525, "ew e": 3526, "w er": 3527, " era": 3528, "ra d": 3529, "edc n": 3530, " new ": 3531, "new e": 3532, "ew er": 3533, "w era": 3534, "t sho": 3535, "t n": 3536, "itra": 3537, "itra ": 3538, "eg": 3539, "meg": 3540, "ega": 3541, "usp": 3542, "spi": 3543, "mega": 3544, "ga p": 3545, "pusp": 3546, "uspi": 3547, "spit": 3548, "pita": 3549, "puspi": 3550, "uspit": 3551, "spita": 3552, "pita ": 3553, " 74": 3554, "f 9": 3555, "rf 9": 3556, "trf 9": 3557, "gg": 3558, " ve": 3559, "ngg": 3560, "ggr": 3561, "rai": 3562, "ain": 3563, " ver": 3564, "vera": 3565, "angg": 3566, "nggr": 3567, "ggra": 3568, "grai": 3569, "rain": 3570, "aini": 3571, " vera": 3572, "anggr": 3573, "nggra": 3574, "ggrai": 3575, "grain": 3576, "raini": 3577, "aini ": 3578, " ol": 3579, "oli": 3580, "liv": 3581, "ivi": 3582, "sin": 3583, " oli": 3584, "oliv": 3585, "livi": 3586, "ivia": 3587, "a si": 3588, " sin": 3589, "sina": 3590, "inag": 3591, "aga ": 3592, " oliv": 3593, "olivi": 3594, "livia": 3595, "ivia ": 3596, "via s": 3597, "ia si": 3598, "a sin": 3599, " sina": 3600, "sinag": 3601, "inaga": 3602, "naga ": 3603, " 3 ": 3604, "3 i": 3605, "nes": 3606, "esi": 3607, " 3 i": 3608, "3 in": 3609, "ndon": 3610, "done": 3611, "ones": 3612, "nesi": 3613, "esia": 3614, "sia ": 3615, " 3 in": 3616, "3 ind": 3617, "indon": 3618, "ndone": 3619, "dones": 3620, "onesi": 3621, "nesia": 3622, "esia ": 3623, "m j": 3624, "rta": 3625, "jaka": 3626, "akar": 3627, "arta": 3628, "rta ": 3629, "jakar": 3630, "akart": 3631, "karta": 3632, "arta ": 3633, "tah": 3634, "ri d": 3635, "ri de": 3636, "i o": 3637, "nta": 3638, "r r": 3639, " ant": 3640, "anta": 3641, "ntar": 3642, "tar ": 3643, "ar r": 3644, "r re": 3645, "r ant": 3646, " anta": 3647, "antar": 3648, "ntar ": 3649, "tar r": 3650, "ar re": 3651, "r rek": 3652, "dc u": 3653, "edc u": 3654, " 25": 3655, "kon": 3656, "ons": 3657, "sul": 3658, "ult": 3659, "lta": 3660, " kon": 3661, "kons": 3662, "onsu": 3663, "nsul": 3664, "sult": 3665, "ulta": 3666, "ltas": 3667, "tasi": 3668, "si g": 3669, " kons": 3670, "konsu": 3671, "onsul": 3672, "nsult": 3673, "sulta": 3674, "ultas": 3675, "ltasi": 3676, "tasi ": 3677, "asi g": 3678, "585": 3679, "np s": 3680, " np s": 3681, "yp": 3682, "e m": 3683, "c t": 3684, " sma": 3685, "sma ": 3686, "p sma": 3687, " sma ": 3688, "r sp": 3689, "yr sp": 3690, "r spp": 3691, "l vi": 3692, "re s": 3693, "ore s": 3694, "o p": 3695, "ahy": 3696, "ess": 3697, "tax": 3698, "ess ": 3699, "ss t": 3700, " tax": 3701, "ess t": 3702, "132": 3703, " top": 3704, "had": 3705, " had": 3706, "hadi": 3707, "nto ": 3708, " hadi": 3709, "hadi ": 3710, "adi s": 3711, "di su": 3712, "anto ": 3713, "ika": 3714, "i u": 3715, "tya": 3716, "dity": 3717, "itya": 3718, "tya ": 3719, "adity": 3720, "ditya": 3721, "itya ": 3722, "b a": 3723, "db a": 3724, " db a": 3725, "int": 3726, "pi p": 3727, "prin": 3728, "rint": 3729, "int ": 3730, "opi p": 3731, "pi pr": 3732, "i pri": 3733, " prin": 3734, "print": 3735, "rint ": 3736, "oh": 3737, "u n": 3738, "nug": 3739, "ugr": 3740, "gro": 3741, "roh": 3742, "oho": 3743, "ho ": 3744, "bayu": 3745, "yu n": 3746, "u nu": 3747, " nug": 3748, "nugr": 3749, "ugro": 3750, "groh": 3751, "roho": 3752, "oho ": 3753, " bayu": 3754, "bayu ": 3755, "ayu n": 3756, "yu nu": 3757, "u nug": 3758, " nugr": 3759, "nugro": 3760, "ugroh": 3761, "groho": 3762, "roho ": 3763, "o w": 3764, "a ok": 3765, "i sar": 3766, "631": 3767, "90 ": 3768, "e l": 3769, "b o": 3770, "db o": 3771, "b or": 3772, " db o": 3773, "db or": 3774, "b ora": 3775, "dc sp": 3776, "of": 3777, "ff": 3778, "ee": 3779, "cof": 3780, "off": 3781, "ffe": 3782, "fee": 3783, "ee ": 3784, " cof": 3785, "coff": 3786, "offe": 3787, "ffee": 3788, "fee ": 3789, " coff": 3790, "coffe": 3791, "offee": 3792, "ffee ": 3793, "i 9": 3794, "572": 3795, "21 ": 3796, "a 7": 3797, "pla": 3798, "ane": 3799, "net": 3800, " pla": 3801, "plan": 3802, "lane": 3803, "anet": 3804, "net ": 3805, " plan": 3806, "plane": 3807, "lanet": 3808, "anet ": 3809, "net s": 3810, "et sp": 3811, "t spo": 3812, "e k": 3813, "b 2": 3814, "n wi": 3815, " wib": 3816, "wan w": 3817, "an wi": 3818, "n wib": 3819, "866": 3820, "12 ": 3821, "ow": 3822, "wo": 3823, "ibo": 3824, "bow": 3825, "owo": 3826, "wo ": 3827, "wibo": 3828, "ibow": 3829, "bowo": 3830, "owo ": 3831, "wibow": 3832, "ibowo": 3833, "bowo ": 3834, "50 ": 3835, "434": 3836, "nt go": 3837, "t goj": 3838, "f r": 3839, "ln p": 3840, "n pr": 3841, "pln p": 3842, "ln pr": 3843, "462": 3844, "a he": 3845, "ke st": 3846, "652": 3847, "414": 3848, "25 ": 3849, "b da": 3850, "db da": 3851, "b dan": 3852, " 31": 3853, "360": 3854, "60 ": 3855, " era ": 3856, "e d": 3857, "mt n": 3858, "pmt n": 3859, "a de": 3860, "a dew": 3861, "may": 3862, "amay": 3863, "maya": 3864, "yana": 3865, "na s": 3866, "ramay": 3867, "amaya": 3868, "mayan": 3869, "ayana": 3870, "yana ": 3871, "ega ": 3872, "mega ": 3873, "ega p": 3874, "ga pu": 3875, "a pus": 3876, " pusp": 3877, "35 ": 3878, "31 ": 3879, "yr k": 3880, "r ku": 3881, "byr k": 3882, "yr ku": 3883, "r kur": 3884, "mt h": 3885, "pmt h": 3886, "ra a": 3887, "a an": 3888, " ang": 3889, "vera ": 3890, "era a": 3891, "ra an": 3892, "a ang": 3893, " angg": 3894, "48 ": 3895, "57 ": 3896, "ie a": 3897, "e ay": 3898, "am j": 3899, "m ja": 3900, " jak": 3901, "mie a": 3902, "ie ay": 3903, "e aya": 3904, "yam j": 3905, "am ja": 3906, "m jak": 3907, " jaka": 3908, "b 0": 3909, " 08": 3910, " mat": 3911, "atah": 3912, "taha": 3913, " mata": 3914, "matah": 3915, "ataha": 3916, "tahar": 3917, "ahari": 3918, "hari ": 3919, "ari d": 3920, "i dep": 3921, "y go": 3922, "py go": 3923, "y goj": 3924, "h p": 3925, "ah p": 3926, "b k": 3927, "db k": 3928, " db k": 3929, "b br": 3930, "db br": 3931, "gia": 3932, " hy": 3933, "hyp": 3934, "ype": 3935, " gia": 3936, "gian": 3937, "iant": 3938, "ant ": 3939, "nt h": 3940, "t hy": 3941, " hyp": 3942, "hype": 3943, "yper": 3944, " gian": 3945, "giant": 3946, "iant ": 3947, "ant h": 3948, "nt hy": 3949, "t hyp": 3950, " hype": 3951, "hyper": 3952, "yperm": 3953, " 68": 3954, "dc t": 3955, "c tr": 3956, "edc t": 3957, "dc tr": 3958, "c tra": 3959, "33 ": 3960, "t ru": 3961, "t rum": 3962, "iz": 3963, "zt": 3964, "inu": 3965, "nul": 3966, "ul ": 3967, "viz": 3968, "izt": 3969, "zta": 3970, " inu": 3971, "inul": 3972, "nul ": 3973, "ul v": 3974, " viz": 3975, "vizt": 3976, "izta": 3977, "zta ": 3978, " inul": 3979, "inul ": 3980, "nul v": 3981, "ul vi": 3982, "l viz": 3983, " vizt": 3984, "vizta": 3985, "izta ": 3986, "i le": 3987, "i les": 3988, "493": 3989, "306": 3990, "ex": 3991, "xp": 3992, " ex": 3993, "exp": 3994, "xpr": 3995, "xi ": 3996, " exp": 3997, "expr": 3998, "xpre": 3999, "pres": 4000, "ress": 4001, "s ta": 4002, "taxi": 4003, "axi ": 4004, " expr": 4005, "expre": 4006, "xpres": 4007, "press": 4008, "ress ": 4009, "ss ta": 4010, "s tax": 4011, " taxi": 4012, "taxi ": 4013, "f 6": 4014, "rf 6": 4015, "trf 6": 4016, " 28": 4017, "c lab": 4018, "ben": 4019, " ben": 4020, " 58": 4021, "lian": 4022, "p e": 4023, "b to": 4024, "db to": 4025, "pbk": 4026, "bk ": 4027, "k r": 4028, "k 4": 4029, " pbk": 4030, "pbk ": 4031, "bk r": 4032, "k re": 4033, "ke r": 4034, "e re": 4035, " pbk ": 4036, "pbk r": 4037, "bk re": 4038, "k rek": 4039, " ke r": 4040, "ke re": 4041, "e rek": 4042, "ka ": 4043, "tika": 4044, "ika ": 4045, "ka r": 4046, "hani": 4047, " tika": 4048, "tika ": 4049, "ika r": 4050, "ka ra": 4051, "hmadh": 4052, "dhani": 4053, "hani ": 4054, "t pl": 4055, " 39": 4056, "i h": 4057, "ri h": 4058, "i ha": 4059, " han": 4060, "hand": 4061, "nday": 4062, "itri ": 4063, "tri h": 4064, "ri ha": 4065, "i han": 4066, " hand": 4067, "handa": 4068, "anday": 4069, "c ah": 4070, "dc ah": 4071, "c aha": 4072, "b 4": 4073, "n pa": 4074, "an pa": 4075, "k g": 4076, "jo": 4077, " jo": 4078, "jok": 4079, "wid": 4080, "ido": 4081, "dod": 4082, "odo": 4083, "do ": 4084, " jok": 4085, "joko": 4086, "oko ": 4087, "ko w": 4088, "o wi": 4089, " wid": 4090, "wido": 4091, "idod": 4092, "dodo": 4093, "odo ": 4094, " joko": 4095, "joko ": 4096, "oko w": 4097, "ko wi": 4098, "o wid": 4099, " wido": 4100, "widod": 4101, "idodo": 4102, "dodo ": 4103, "i 6": 4104, " meg": 4105, " mega": 4106, "190": 4107, "av": 4108, "vin": 4109, "avi": 4110, "vina": 4111, "na o": 4112, " okt": 4113, "vina ": 4114, "ina o": 4115, "na ok": 4116, "a okt": 4117, "nis": 4118, "isa": 4119, " ani": 4120, "anis": 4121, "nisa": 4122, "isa ": 4123, "sa r": 4124, "hma ": 4125, " anis": 4126, "anisa": 4127, "nisa ": 4128, "isa r": 4129, "sa ra": 4130, "ahma ": 4131, "401": 4132, "t ku": 4133, "mt ku": 4134, "t kur": 4135, "oki": 4136, "rt s": 4137, "ort s": 4138, "887": 4139, "yat": 4140, "hida": 4141, "iday": 4142, "ayat": 4143, " hida": 4144, "hiday": 4145, "idaya": 4146, "dayat": 4147, "g ta": 4148, "ng ta": 4149, "b l": 4150, "db l": 4151, " db l": 4152, "ri 2": 4153, "o h": 4154, "rto": 4155, "no h": 4156, "o ha": 4157, "hart": 4158, "arto": 4159, "rton": 4160, "ono h": 4161, "no ha": 4162, "o har": 4163, " hart": 4164, "harto": 4165, "arton": 4166, "rtono": 4167, "p b": 4168, "c spp": 4169, "ad ": 4170, "517": 4171, "559": 4172, "faj": 4173, "jar": 4174, "sid": 4175, "idi": 4176, "diq": 4177, "iq ": 4178, " faj": 4179, "faja": 4180, "ajar": 4181, "jar ": 4182, "ar s": 4183, "r si": 4184, " sid": 4185, "sidi": 4186, "idiq": 4187, "diq ": 4188, " faja": 4189, "fajar": 4190, "ajar ": 4191, "jar s": 4192, "ar si": 4193, "r sid": 4194, " sidi": 4195, "sidiq": 4196, "idiq ": 4197, "y t": 4198, "py t": 4199, "t ap": 4200, "t apo": 4201, "38 ": 4202, "y gr": 4203, "py gr": 4204, "y gra": 4205, "222": 4206, "r bia": 4207, "wati": 4208, "ati ": 4209, " wati": 4210, "wati ": 4211, "db 2": 4212, " db 2": 4213, "a pl": 4214, "g k": 4215, "ng k": 4216, "g ko": 4217, "ung k": 4218, "ng ko": 4219, "g kop": 4220, "986": 4221, " wibo": 4222, "286": 4223, " 13": 4224, "a 1": 4225, "159": 4226, "yus": 4227, "suf": 4228, "uf ": 4229, " yus": 4230, "yusu": 4231, "usuf": 4232, "suf ": 4233, "uf r": 4234, " yusu": 4235, "yusuf": 4236, "usuf ": 4237, "suf r": 4238, "n pra": 4239, "r l": 4240, "214": 4241, "yr l": 4242, "byr l": 4243, "541": 4244, "sum": 4245, "a ku": 4246, "604": 4247, "ak b": 4248, "pak b": 4249, "ak be": 4250, "k bel": 4251, "193": 4252, "b 9": 4253, "997": 4254, "973": 4255, "did": 4256, " 89": 4257, "adid": 4258, "dida": 4259, "idas": 4260, "das ": 4261, " adid": 4262, "adida": 4263, "didas": 4264, "idas ": 4265, "das s": 4266, "as st": 4267, "s sto": 4268, "a dp": 4269, "c wat": 4270, "ilan": 4271, "e dp": 4272, "c y": 4273, "101": 4274, "citr": 4275, "citra": 4276, "tra d": 4277, "ra de": 4278, " 36": 4279, "97 ": 4280, "mt r": 4281, "a sb": 4282, "pmt r": 4283, "a sby": 4284, "047": 4285, "898": 4286, "t ha": 4287, "mt ha": 4288, "t hap": 4289, "p w": 4290, "np w": 4291, "p wa": 4292, " np w": 4293, "np wa": 4294, "i k": 4295, "t 3": 4296, "79 ": 4297, "495": 4298, "db 0": 4299, " db 0": 4300, "mi o": 4301, "ami o": 4302, "ra o": 4303, "865": 4304, "420": 4305, " 87": 4306, "987": 4307, "b bri": 4308, "mt sp": 4309, "t spp": 4310, "721": 4311, "91 ": 4312, "649": 4313, "962": 4314, "943": 4315, "302": 4316, "yo": 4317, " ek": 4318, "ras": 4319, "ase": 4320, "set": 4321, "ety": 4322, "tyo": 4323, "yo ": 4324, " 63": 4325, "689": 4326, "89 ": 4327, " eko": 4328, "eko ": 4329, "ko p": 4330, "o pr": 4331, "pras": 4332, "rase": 4333, "aset": 4334, "sety": 4335, "etyo": 4336, "tyo ": 4337, " eko ": 4338, "eko p": 4339, "ko pr": 4340, "o pra": 4341, " pras": 4342, "prase": 4343, "raset": 4344, "asety": 4345, "setyo": 4346, "etyo ": 4347, "749": 4348, "630": 4349, "f 7": 4350, "rf 7": 4351, "trf 7": 4352, "507": 4353, "arm": 4354, "a da": 4355, "arma": 4356, "rma ": 4357, "arma ": 4358, "ek b": 4359, "rek b": 4360, "605": 4361, "05 ": 4362, "atn": 4363, "tna": 4364, " rat": 4365, "ratn": 4366, "atna": 4367, "tna ": 4368, " ratn": 4369, "ratna": 4370, "atna ": 4371, "tna s": 4372, "na sa": 4373, "498": 4374, "51 ": 4375, " up": 4376, "top ": 4377, "op u": 4378, "p up": 4379, "b top": 4380, " top ": 4381, "top u": 4382, "op up": 4383, "871": 4384, "429": 4385, "821": 4386, "f 2": 4387, "rf 2": 4388, "trf 2": 4389, "t 8": 4390, " 77": 4391, "165": 4392, "912": 4393, "432": 4394, "mt a": 4395, "pmt a": 4396, "kta": 4397, "tav": 4398, " vin": 4399, "okta": 4400, "ktav": 4401, "tavi": 4402, "avia": 4403, " vina": 4404, " okta": 4405, "oktav": 4406, "ktavi": 4407, "tavia": 4408, "avia ": 4409, "220": 4410, " oki": 4411, "oki ": 4412, "ki p": 4413, " oki ": 4414, "oki p": 4415, "ki pr": 4416, "i pra": 4417, "tat": 4418, "tio": 4419, " sta": 4420, "stat": 4421, "tati": 4422, "atio": 4423, "tion": 4424, "ion ": 4425, "rt st": 4426, "t sta": 4427, " stat": 4428, "stati": 4429, "tatio": 4430, "ation": 4431, "tion ": 4432, " 19": 4433, "695": 4434, "ing t": 4435, "g tag": 4436, "at l": 4437, "at la": 4438, "h m": 4439, "pad": 4440, "ah m": 4441, "h ma": 4442, " pad": 4443, "mah m": 4444, "ah ma": 4445, "h mak": 4446, "kan p": 4447, "n pad": 4448, "599": 4449, "din": 4450, "a fi": 4451, "a fit": 4452, "95 ": 4453, "nga": 4454, "397": 4455, " ton": 4456, " tono": 4457, "zi": 4458, "d f": 4459, "fau": 4460, "auz": 4461, "uzi": 4462, "zi ": 4463, " ahm": 4464, "mad ": 4465, "ad f": 4466, "d fa": 4467, " fau": 4468, "fauz": 4469, "auzi": 4470, "uzi ": 4471, " ahma": 4472, "hmad ": 4473, "mad f": 4474, "ad fa": 4475, "d fau": 4476, " fauz": 4477, "fauzi": 4478, "auzi ": 4479, "na p": 4480, "ana p": 4481, "a 9": 4482, " 54": 4483, "y ta": 4484, "py ta": 4485, "y tag": 4486, "at a": 4487, "at ap": 4488, "yani": 4489, "ndaya": 4490, "dayan": 4491, "ayani": 4492, "yani ": 4493, " 57": 4494, "x ": 4495, "h b": 4496, "ah b": 4497, " 30": 4498, " 96": 4499, "869": 4500, "793": 4501, "db 6": 4502, " db 6": 4503, "16 ": 4504, "s b": 4505, "beb": 4506, "bek": 4507, "g h": 4508, "iss": 4509, "ssa": 4510, " beb": 4511, "bebe": 4512, "ebek": 4513, "bek ": 4514, "ek g": 4515, "k go": 4516, "ng h": 4517, "g ha": 4518, "riss": 4519, "issa": 4520, "ssa ": 4521, "a yk": 4522, " bebe": 4523, "bebek": 4524, "ebek ": 4525, "bek g": 4526, "ek go": 4527, "k gor": 4528, "eng h": 4529, "ng ha": 4530, "g har": 4531, " hari": 4532, "haris": 4533, "ariss": 4534, "rissa": 4535, "issa ": 4536, "a yk ": 4537, "762": 4538, "y bi": 4539, "py bi": 4540, "b per": 4541, "et t": 4542, "205": 4543, "b bs": 4544, "db bs": 4545, "b bsi": 4546, "245": 4547, "b ta": 4548, "db ta": 4549, "b tag": 4550, "y l": 4551, "py l": 4552, "y le": 4553, "ipy l": 4554, "py le": 4555, "y les": 4556, "a pb": 4557, "a pbr": 4558, "f ra": 4559, "hman": 4560, "uf ra": 4561, "f rah": 4562, "ahman": 4563, "hman ": 4564, "t lau": 4565, "c ku": 4566, "dc ku": 4567, "c kur": 4568, "621": 4569, "588": 4570, "e pb": 4571, "e pbr": 4572, "n 3": 4573, "356": 4574, "142": 4575, "316": 4576, "363": 4577, "044": 4578, "aym": 4579, "yme": 4580, " pay": 4581, "paym": 4582, "ayme": 4583, "ymen": 4584, "ment": 4585, " paym": 4586, "payme": 4587, "aymen": 4588, "yment": 4589, "ment ": 4590, " 99": 4591, "db 9": 4592, " db 9": 4593, "b 8": 4594, "195": 4595, "92 ": 4596, "500": 4597, "001": 4598, "met": 4599, "etr": 4600, "tro": 4601, "o d": 4602, " met": 4603, "metr": 4604, "etro": 4605, "tro ": 4606, "ro d": 4607, "o de": 4608, " metr": 4609, "metro": 4610, "etro ": 4611, "tro d": 4612, "ro de": 4613, "o dep": 4614, "860": 4615, " citr": 4616, "879": 4617, "lam": 4618, "a 2": 4619, "980": 4620, "398": 4621, "542": 4622, "m b": 4623, "p wat": 4624, "148": 4625, "t 2": 4626, "790": 4627, "904": 4628, "033": 4629, "443": 4630, "099": 4631, "994": 4632, "343": 4633, "ta m": 4634, "823": 4635, "233": 4636, "n o": 4637, "an o": 4638, "c ur": 4639, "c urb": 4640, "447": 4641, "975": 4642, "658": 4643, "584": 4644, "765": 4645, "52 ": 4646, "684": 4647, "c c": 4648, " 00": 4649, " 32": 4650, "328": 4651, "213": 4652, "ta s": 4653, "b 3": 4654, "536": 4655, "291": 4656, "n d": 4657, "wi l": 4658, "ewi l": 4659, "wi le": 4660, "p p": 4661, " 94": 4662, "392": 4663, " ca": 4664, "252": 4665, "ury": 4666, "rya": 4667, "dar": 4668, " sur": 4669, "sury": 4670, "urya": 4671, "rya ": 4672, "ya d": 4673, " dar": 4674, "darm": 4675, " sury": 4676, "surya": 4677, "urya ": 4678, "rya d": 4679, "ya da": 4680, "a dar": 4681, " darm": 4682, "darma": 4683, "a bg": 4684, "a bgr": 4685, "289": 4686, "896": 4687, "bur": 4688, "449": 4689, " ew": 4690, "ewa": 4691, "wal": 4692, "all": 4693, "lle": 4694, "let": 4695, " up ": 4696, "up e": 4697, "p ew": 4698, " ewa": 4699, "ewal": 4700, "wall": 4701, "alle": 4702, "llet": 4703, "let ": 4704, "p up ": 4705, "up ew": 4706, "p ewa": 4707, " ewal": 4708, "ewall": 4709, "walle": 4710, "allet": 4711, "llet ": 4712, "549": 4713, " 10": 4714, "042": 4715, "r sed": 4716, "526": 4717, "ek 4": 4718, "rek 4": 4719, " ud": 4720, "udu": 4721, "duk": 4722, "uk ": 4723, "taw": 4724, "awi": 4725, "si u": 4726, "i ud": 4727, " udu": 4728, "uduk": 4729, "duk ": 4730, "uk b": 4731, " bet": 4732, "beta": 4733, "etaw": 4734, "tawi": 4735, "asi u": 4736, "si ud": 4737, "i udu": 4738, " uduk": 4739, "uduk ": 4740, "duk b": 4741, "uk be": 4742, "k bet": 4743, " beta": 4744, "betaw": 4745, "etawi": 4746, "602": 4747, "db 4": 4748, " db 4": 4749, "976": 4750, "231": 4751, "957": 4752, "840": 4753, "lang": 4754, "lang ": 4755, "ga b": 4756, "rga b": 4757, " 66": 4758, "075": 4759, " 43": 4760, "t bim": 4761, "b bia": 4762, "26 ": 4763, "09 ": 4764, "i 1": 4765, "348": 4766, "539": 4767, "b la": 4768, "db la": 4769, "b lau": 4770, "123": 4771, "ada": 4772, "pada": 4773, "adan": 4774, "dang": 4775, " pada": 4776, "padan": 4777, "adang": 4778, "dang ": 4779, "k t": 4780, "k ti": 4781, "k tik": 4782, " 44": 4783, "abd": 4784, "zaki": 4785, " zaki": 4786, " di": 4787, "ria": 4788, " din": 4789, "dina": 4790, "na f": 4791, "tria": 4792, "rian": 4793, "iani": 4794, " dina": 4795, "dina ": 4796, "ina f": 4797, "na fi": 4798, "itria": 4799, "trian": 4800, "riani": 4801, "146": 4802, " 70": 4803, "a 0": 4804, "bud": 4805, "tos": 4806, "oso": 4807, "so ": 4808, " bud": 4809, "budi": 4810, "udi ": 4811, " san": 4812, "ntos": 4813, "toso": 4814, "oso ": 4815, " budi": 4816, "budi ": 4817, "udi s": 4818, "di sa": 4819, "i san": 4820, " sant": 4821, "antos": 4822, "ntoso": 4823, "toso ": 4824, "669": 4825, "393": 4826, "cel": 4827, "l l": 4828, "ele": 4829, "le ": 4830, "gan": 4831, "ngan": 4832, "b n": 4833, "db n": 4834, " db n": 4835, "p r": 4836, "t y": 4837, "np r": 4838, " np r": 4839, "jul": 4840, "uli": 4841, " jul": 4842, "juli": 4843, "ulia": 4844, "iana": 4845, " juli": 4846, "julia": 4847, "ulian": 4848, "liana": 4849, "iana ": 4850, "na pu": 4851, "a put": 4852, "515": 4853, "13 ": 4854, "b 5": 4855, "719": 4856, "i dew": 4857, "983": 4858, "06 ": 4859, " 93": 4860, "931": 4861, "xx": 4862, "n q": 4863, "max": 4864, "axx": 4865, "xx ": 4866, "x c": 4867, "an q": 4868, "n qr": 4869, " max": 4870, "maxx": 4871, "axx ": 4872, "xx c": 4873, "x co": 4874, "ran q": 4875, "an qr": 4876, "n qri": 4877, " maxx": 4878, "maxx ": 4879, "axx c": 4880, "xx co": 4881, "x cof": 4882, "af": 4883, "kaf": 4884, "afe": 4885, "fe ": 4886, " kaf": 4887, "kafe": 4888, "afe ": 4889, "fe k": 4890, "e ki": 4891, " kit": 4892, "kita": 4893, " kafe": 4894, "kafe ": 4895, "afe k": 4896, "fe ki": 4897, "e kit": 4898, " kita": 4899, "kita ": 4900, "746": 4901, "467": 4902, "984": 4903, "t 7": 4904, " 78": 4905, "089": 4906, "999": 4907, "018": 4908, "160": 4909, " 11": 4910, "282": 4911, "a 8": 4912, "y bia": 4913, "739": 4914, "93 ": 4915, "050": 4916, " 51": 4917, "i 5": 4918, "bet t": 4919, "et ta": 4920, "663": 4921, "t li": 4922, "t lin": 4923, "221": 4924, "726": 4925, "314": 4926, " 46": 4927, " 76": 4928, "qo": 4929, " qo": 4930, "qor": 4931, "mal": 4932, "ali": 4933, " qor": 4934, "qori": 4935, "ori ": 4936, "ri a": 4937, "i am": 4938, "amal": 4939, "mali": 4940, "alia": 4941, "lia ": 4942, " qori": 4943, "qori ": 4944, "ori a": 4945, "ri am": 4946, "i ama": 4947, " amal": 4948, "amali": 4949, "malia": 4950, "alia ": 4951, " 15": 4952, "464": 4953, "t w": 4954, "t wa": 4955, "a so": 4956, "a sol": 4957, "144": 4958, "t j": 4959, "032": 4960, "32 ": 4961, " 35": 4962, "675": 4963, "828": 4964, "28 ": 4965, "er 3": 4966, "44 ": 4967, "419": 4968, "58 ": 4969, "730": 4970, "416": 4971, "622": 4972, " 81": 4973, "a ru": 4974, "a rut": 4975, " 88": 4976, "365": 4977, "650": 4978, "ri 8": 4979, "a dpk": 4980, "l m": 4981, "dc y": 4982, "c ya": 4983, "edc y": 4984, "dc ya": 4985, "c yam": 4986, "932": 4987, "01 ": 4988, " 86": 4989, "077": 4990, "772": 4991, "72 ": 4992, "n sb": 4993, "n sby": 4994, "et b": 4995, "t bp": 4996, "69 ": 4997, " 04": 4998, "475": 4999, "097": 5000, " 23": 5001, "985": 5002, "42 ": 5003, "ra p": 5004, "771": 5005, "379": 5006, " 50": 5007, "r 9": 5008, "668": 5009, " 97": 5010, "979": 5011, "690": 5012, "p t": 5013, "715": 5014, "rw": 5015, " en": 5016, "pur": 5017, "urw": 5018, "rwa": 5019, "504": 5020, "479": 5021, " end": 5022, "enda": 5023, "h pu": 5024, " pur": 5025, "purw": 5026, "urwa": 5027, "rwan": 5028, "want": 5029, " enda": 5030, "endah": 5031, "dah p": 5032, "ah pu": 5033, "h pur": 5034, " purw": 5035, "purwa": 5036, "urwan": 5037, "rwant": 5038, "wanti": 5039, "c as": 5040, "dc as": 5041, "b ku": 5042, "db ku": 5043, "b kur": 5044, "842": 5045, "99 ": 5046, "798": 5047, "852": 5048, "p sa": 5049, "np sa": 5050, "847": 5051, "703": 5052, "dc c": 5053, "edc c": 5054, "873": 5055, "357": 5056, "576": 5057, "287": 5058, "at ru": 5059, "153": 5060, "db 3": 5061, " db 3": 5062, "329": 5063, "ab t": 5064, "b ti": 5065, "rab t": 5066, "ab ti": 5067, "b tik": 5068, "021": 5069, "211": 5070, "923": 5071, "94 ": 5072, "cah": 5073, "hya": 5074, " cah": 5075, "cahy": 5076, "ahya": 5077, "hya ": 5078, "ya p": 5079, "a pr": 5080, " cahy": 5081, "cahya": 5082, "ahya ": 5083, "hya p": 5084, "ya pr": 5085, "a pra": 5086, "492": 5087, "l su": 5088, "624": 5089, "14 ": 5090, "kam": 5091, "amp": 5092, " kan": 5093, "kant": 5094, "ntin": 5095, "in k": 5096, " kam": 5097, "kamp": 5098, "ampu": 5099, "mpus": 5100, "pus ": 5101, " kant": 5102, "kanti": 5103, "antin": 5104, "ntin ": 5105, "tin k": 5106, "in ka": 5107, "n kam": 5108, " kamp": 5109, "kampu": 5110, "ampus": 5111, "mpus ": 5112, "ran t": 5113, "nt z": 5114, "mnt z": 5115, "nt za": 5116, "t zal": 5117, "ge": 5118, "048": 5119, "b x": 5120, "db x": 5121, "b xl": 5122, " db x": 5123, "db xl": 5124, "b xl ": 5125, "bub": 5126, "ubu": 5127, "ur ": 5128, " bub": 5129, "bubu": 5130, "ubur": 5131, "bur ": 5132, "ur a": 5133, "r ay": 5134, " bubu": 5135, "bubur": 5136, "ubur ": 5137, "bur a": 5138, "ur ay": 5139, "r aya": 5140, "i 0": 5141, "632": 5142, "086": 5143, " up e": 5144, "454": 5145, "18 ": 5146, " 69": 5147, "062": 5148, " 42": 5149, "66 ": 5150, "908": 5151, "200": 5152, "i go": 5153, "si go": 5154, "276": 5155, "145": 5156, " 61": 5157, "612": 5158, "gil": 5159, "g r": 5160, "n 6": 5161, "56 ": 5162, " gil": 5163, "gila": 5164, "ng r": 5165, "g ra": 5166, "amad": 5167, " gila": 5168, "gilan": 5169, "ilang": 5170, "ang r": 5171, "ng ra": 5172, "g ram": 5173, "ramad": 5174, "amadh": 5175, "dhan ": 5176, "a ba": 5177, "a bay": 5178, "712": 5179, "154": 5180, "224": 5181, "219": 5182, " 91": 5183, "272": 5184, "327": 5185, "720": 5186, "016": 5187, "a bd": 5188, "a bdg": 5189, "v b": 5190, "tv b": 5191, "ktv b": 5192, " 20": 5193, "206": 5194, "433": 5195, "476": 5196, "651": 5197, "c g": 5198, "905": 5199, "awi ": 5200, "tawi ": 5201, "wat l": 5202, "235": 5203, "88 ": 5204, " 02": 5205, "963": 5206, "t 5": 5207, "804": 5208, "c bia": 5209, "770": 5210, "706": 5211, " 52": 5212, "643": 5213, "n dp": 5214, "iti": 5215, "tia": 5216, "iam": 5217, "opit": 5218, "piti": 5219, "itia": 5220, "tiam": 5221, "iam ": 5222, "kopit": 5223, "opiti": 5224, "pitia": 5225, "itiam": 5226, "tiam ": 5227, "ek t": 5228, "jek t": 5229, "ek ti": 5230, "969": 5231, "bdi": 5232, "dil": 5233, "ill": 5234, "aki ": 5235, "abdi": 5236, "bdil": 5237, "dill": 5238, "illa": 5239, "zaki ": 5240, "abdil": 5241, "bdill": 5242, "dilla": 5243, "illah": 5244, "iani ": 5245, "967": 5246, "p l": 5247, "ink": 5248, "link": 5249, " link": 5250, "654": 5251, "491": 5252, "71 ": 5253, "295": 5254, "427": 5255, "p aq": 5256, "np aq": 5257, "p aqi": 5258, "27 ": 5259, "ec": 5260, "pec": 5261, "ece": 5262, "lel": 5263, "ong": 5264, " pec": 5265, "pece": 5266, "ecel": 5267, "cel ": 5268, "el l": 5269, "l le": 5270, " lel": 5271, "lele": 5272, "ele ": 5273, "le l": 5274, "e la": 5275, " lam": 5276, "lamo": 5277, "mong": 5278, "onga": 5279, "gan ": 5280, " pece": 5281, "pecel": 5282, "ecel ": 5283, "cel l": 5284, "el le": 5285, "l lel": 5286, " lele": 5287, "lele ": 5288, "ele l": 5289, "le la": 5290, "e lam": 5291, " lamo": 5292, "lamon": 5293, "among": 5294, "monga": 5295, "ongan": 5296, "ngan ": 5297, "b bim": 5298, "125": 5299, "254": 5300, "413": 5301, "545": 5302, "998": 5303, "988": 5304, "888": 5305, "758": 5306, "ipy t": 5307, "555": 5308, "db 5": 5309, " db 5": 5310, "u h": 5311, "317": 5312, "708": 5313, "c le": 5314, "dc le": 5315, "c les": 5316, "03 ": 5317, "a wa": 5318, "ti s": 5319, "ati s": 5320, "ti su": 5321, "santi": 5322, "y a": 5323, "918": 5324, "023": 5325, "py a": 5326, "rad": 5327, "div": 5328, "var": 5329, "ius": 5330, " str": 5331, "trad": 5332, "radi": 5333, "adiv": 5334, "diva": 5335, "ivar": 5336, "vari": 5337, "ariu": 5338, "rius": 5339, "ius ": 5340, " stra": 5341, "strad": 5342, "tradi": 5343, "radiv": 5344, "adiva": 5345, "divar": 5346, "ivari": 5347, "variu": 5348, "arius": 5349, "rius ": 5350, "119": 5351, "196": 5352, "740": 5353, "b ser": 5354, "786": 5355, "925": 5356, "253": 5357, "841": 5358, "m m": 5359, "40 ": 5360, "795": 5361, "a plb": 5362, "b no": 5363, "db no": 5364, "b not": 5365, "438": 5366, "849": 5367, "806": 5368, "96 ": 5369, " 14": 5370, "666": 5371, "rt c": 5372, "080": 5373, "653": 5374, "388": 5375, "809": 5376, " 29": 5377, "172": 5378, " 53": 5379, "399": 5380, "996": 5381, " 05": 5382, "b 1": 5383, "312": 5384, "122": 5385, "nt d": 5386, "212": 5387, " 22": 5388, "482": 5389, "671": 5390, "r 2": 5391, "e sb": 5392, "e sby": 5393, "139": 5394, "179": 5395, "p d": 5396, "058": 5397, "07 ": 5398, "86 ": 5399, "b bn": 5400, "db bn": 5401, "b bni": 5402, "550": 5403, "757": 5404, "t pu": 5405, "b cu": 5406, "db cu": 5407, "b cuc": 5408, "155": 5409, "446": 5410, "477": 5411, "77 ": 5412, "b bc": 5413, "db bc": 5414, "b bca": 5415, "843": 5416, "n pl": 5417, "an pl": 5418, "r le": 5419, "yr le": 5420, "r les": 5421, "c ni": 5422, "re p": 5423, "c nik": 5424, "ore p": 5425, "260": 5426, "603": 5427, "754": 5428, "673": 5429, "736": 5430, "fer 3": 5431, " 60": 5432, "484": 5433, "844": 5434, "358": 5435, "304": 5436, "897": 5437, "db 8": 5438, "b 81": 5439, " db 8": 5440, "836": 5441, "011": 5442, "il m": 5443, "e bk": 5444, "ail m": 5445, "e bks": 5446, "e dpk": 5447, "321": 5448, "b pet": 5449, "s he": 5450, "tt": 5451, " lo": 5452, "lot": 5453, "ott": 5454, "tte": 5455, "tem": 5456, "ema": 5457, " lot": 5458, "lott": 5459, "otte": 5460, "ttem": 5461, "tema": 5462, "emar": 5463, "mart": 5464, "art ": 5465, " lott": 5466, "lotte": 5467, "ottem": 5468, "ttema": 5469, "temar": 5470, "emart": 5471, "mart ": 5472, "a c": 5473, "r u": 5474, "yr u": 5475, "r ua": 5476, "byr u": 5477, "yr ua": 5478, "r uan": 5479, "ame": 5480, "776": 5481, "977": 5482, "238": 5483, " 90": 5484, "900": 5485, "039": 5486, "277": 5487, "mi k": 5488, "i ka": 5489, "237": 5490, "04 ": 5491, "b sed": 5492, "a 5": 5493, "347": 5494, "10 ": 5495, "909": 5496, "857": 5497, "369": 5498, "np t": 5499, " np t": 5500, "d m": 5501, "od m": 5502, "a md": 5503, "ood m": 5504, "a mdn": 5505, "924": 5506, "082": 5507, "259": 5508, "017": 5509, "15 ": 5510, "n or": 5511, "i or": 5512, "ran o": 5513, "an or": 5514, "n ora": 5515, "mi or": 5516, "i ord": 5517, "dc ur": 5518, "eh": 5519, "tq": 5520, "seh": 5521, "eha": 5522, "hat": 5523, "atq": 5524, "tq ": 5525, " seh": 5526, "seha": 5527, "ehat": 5528, "hatq": 5529, "atq ": 5530, " seha": 5531, "sehat": 5532, "ehatq": 5533, "hatq ": 5534, "b zak": 5535, "83 ": 5536, "y bu": 5537, "py bu": 5538, "y buk": 5539, "845": 5540, "dc m": 5541, "edc m": 5542, "p sal": 5543, "ket b": 5544, "t bpn": 5545, "470": 5546, "80 ": 5547, "30 ": 5548, "435": 5549, "615": 5550, " 67": 5551, "777": 5552, "430": 5553, "53 ": 5554, "339": 5555, "930": 5556, " 72": 5557, "562": 5558, "625": 5559, "525": 5560, "071": 5561, "049": 5562, "837": 5563, " ge": 5564, "rc m": 5565, "prc m": 5566, "693": 5567, "243": 5568, "36 ": 5569, "344": 5570, "854": 5571, "54 ": 5572, "e so": 5573, "e sol": 5574, "451": 5575, "t o": 5576, "rt b": 5577, "942": 5578, "1 b": 5579, "628": 5580, "267": 5581, " 09": 5582, "453": 5583, "391": 5584, "107": 5585, "228": 5586, "005": 5587, "g n": 5588, "ng n": 5589, "g na": 5590, "ung n": 5591, "ng na": 5592, "g nas": 5593, "i gor": 5594, " 07": 5595, "768": 5596, "802": 5597, "827": 5598, "t sa": 5599, "mt sa": 5600, "t sal": 5601, "916": 5602, "0 b": 5603, "ga ba": 5604, "b u": 5605, "db u": 5606, " db u": 5607, "124": 5608, "422": 5609, " 40": 5610, "066": 5611, "679": 5612, "29 ": 5613, "v bg": 5614, "tv bg": 5615, "v bgr": 5616, "727": 5617, "a mk": 5618, "a mks": 5619, "014": 5620, "a ml": 5621, "a mlg": 5622, "b i": 5623, "db i": 5624, "b iu": 5625, " db i": 5626, "db iu": 5627, "b iur": 5628, "t dp": 5629, "on s": 5630, "858": 5631, "580": 5632, "006": 5633, "053": 5634, "534": 5635, "ri 1": 5636, "if": 5637, " ar": 5638, "rif": 5639, "if ": 5640, "f h": 5641, "atu": 5642, "tul": 5643, "ull": 5644, " ari": 5645, "arif": 5646, "rif ": 5647, "if h": 5648, "f hi": 5649, "yatu": 5650, "atul": 5651, "tull": 5652, "ulla": 5653, " arif": 5654, "arif ": 5655, "rif h": 5656, "if hi": 5657, "f hid": 5658, "ayatu": 5659, "yatul": 5660, "atull": 5661, "tulla": 5662, "ullah": 5663, "953": 5664, "025": 5665, "02 ": 5666, "at 5": 5667, "060": 5668, "c ko": 5669, "dc ko": 5670, "c kop": 5671, " ab": 5672, "ki a": 5673, "i ab": 5674, " abd": 5675, "aki a": 5676, "ki ab": 5677, "i abd": 5678, " abdi": 5679, "c ua": 5680, "dc ua": 5681, "c uan": 5682, "635": 5683, "67 ": 5684, "nka": 5685, "kaj": 5686, "002": 5687, "268": 5688, "inka": 5689, "nkaj": 5690, "kaja": 5691, "aja ": 5692, "linka": 5693, "inkaj": 5694, "nkaja": 5695, "kaja ": 5696, "556": 5697, "266": 5698, "642": 5699, "239": 5700, "t tn": 5701, "t tng": 5702, "230": 5703, "mt t": 5704, "t tr": 5705, "pmt t": 5706, "mt tr": 5707, "t tra": 5708, "mi b": 5709, "ami b": 5710, "257": 5711, "c pu": 5712, "dc pu": 5713, "c pus": 5714, "p rs": 5715, "np rs": 5716, "p rs ": 5717, "404": 5718, "738": 5719, "380": 5720, "157": 5721, "175": 5722, "755": 5723, "f 54": 5724, "rf 54": 5725, "846": 5726, "937": 5727, "a hen": 5728, "070": 5729, " 56": 5730, "818": 5731, "639": 5732, "551": 5733, "37 ": 5734, "659": 5735, "251": 5736, "830": 5737, "at 8": 5738, "mat 8": 5739, "a 6": 5740, "113": 5741, "792": 5742, " 631": 5743, "822": 5744, "991": 5745, "128": 5746, "875": 5747, "a wat": 5748, "183": 5749, "264": 5750, "301": 5751, "p c": 5752, "np c": 5753, " np c": 5754, "t bia": 5755, "p n": 5756, "np n": 5757, " np n": 5758, "zu": 5759, "gke": 5760, "suz": 5761, "uzu": 5762, "zuk": 5763, "uki": 5764, "beng": 5765, "engk": 5766, "ngke": 5767, "gkel": 5768, "kel ": 5769, "el s": 5770, " suz": 5771, "suzu": 5772, "uzuk": 5773, "zuki": 5774, "uki ": 5775, " beng": 5776, "bengk": 5777, "engke": 5778, "ngkel": 5779, "gkel ": 5780, "kel s": 5781, "el su": 5782, "l suz": 5783, " suzu": 5784, "suzuk": 5785, "uzuki": 5786, "zuki ": 5787, "390": 5788, "707": 5789, "079": 5790, "315": 5791, "784": 5792, "891": 5793, "951": 5794, "p m": 5795, "280": 5796, "11 ": 5797, "524": 5798, "nt b": 5799, "415": 5800, "r 7": 5801, "182": 5802, "i 4": 5803, "318": 5804, "n c": 5805, "an c": 5806, "660": 5807, "514": 5808, "255": 5809, " rt c": 5810, "283": 5811, "151": 5812, "511": 5813, "665": 5814, "052": 5815, "r ser": 5816, "081": 5817, "880": 5818, "051": 5819, "074": 5820, "ra s": 5821, "537": 5822, "ra b": 5823, "140": 5824, "521": 5825, "323": 5826, "23 ": 5827, "db 1": 5828, " db 1": 5829, "9866": 5830, "972": 5831, " 03": 5832, "ena": 5833, "731": 5834, "t do": 5835, "mnt d": 5836, "nt do": 5837, "t dok": 5838, "028": 5839, "41 ": 5840, "87 ": 5841, "c sa": 5842, "dc sa": 5843, "c sal": 5844, "173": 5845, "349": 5846, "et l": 5847, "174": 5848, "er 2": 5849, "c bim": 5850, "655": 5851, "ta y": 5852, "ta yk": 5853, "np d": 5854, "p du": 5855, " np d": 5856, "np du": 5857, "p duf": 5858, "394": 5859, "311": 5860, "305": 5861, "t bu": 5862, "208": 5863, "iri 2": 5864, "a sm": 5865, "a smg": 5866, "111": 5867, "337": 5868, "to b": 5869, "917": 5870, "184": 5871, "re sb": 5872, "192": 5873, " ut": 5874, "uta": 5875, " uta": 5876, "utam": 5877, "tami": 5878, "mi d": 5879, " utam": 5880, "utami": 5881, "tami ": 5882, "ami d": 5883, "mi de": 5884, "578": 5885, "533": 5886, "np p": 5887, " np p": 5888, " 64": 5889, "457": 5890, "qah b": 5891, "rt l": 5892, " 37": 5893, "ta b": 5894, "rti": 5895, "arti": 5896, "rtin": 5897, "tini": 5898, "ni s": 5899, "karti": 5900, "artin": 5901, "rtini": 5902, "tini ": 5903, "ini s": 5904, "ni sa": 5905, "t pus": 5906, " 934": 5907, "49 ": 5908, "544": 5909, "444": 5910, "242": 5911, "424": 5912, "45 ": 5913, "m d": 5914, "mt w": 5915, "m dp": 5916, "pmt w": 5917, "mt wa": 5918, "t wat": 5919, "n pln": 5920, "t 6": 5921, " 62": 5922, "ja h": 5923, "t jk": 5924, "nja h": 5925, "ja he": 5926, "a her": 5927, "t jkt": 5928, "re pb": 5929, "226": 5930, "425": 5931, "kus": 5932, "indr": 5933, "ra k": 5934, " kus": 5935, "kusu": 5936, "usum": 5937, "suma": 5938, "uma ": 5939, " indr": 5940, "indra": 5941, "dra k": 5942, "ra ku": 5943, "a kus": 5944, " kusu": 5945, "kusum": 5946, "usuma": 5947, "suma ": 5948, "h so": 5949, "dah s": 5950, "ah so": 5951, "h sol": 5952, "ri p": 5953, "i pu": 5954, "tri p": 5955, "i put": 5956, "ak p": 5957, "k pa": 5958, "ak pa": 5959, "f 41": 5960, "rf 41": 5961, "22 ": 5962, "819": 5963, "958": 5964, "892": 5965, "han b": 5966, "883": 5967, "c ne": 5968, "c new": 5969, "re bk": 5970, "p am": 5971, "ne d": 5972, "np am": 5973, "p ama": 5974, "ne dp": 5975, "t no": 5976, "mt no": 5977, "t not": 5978, "607": 5979, "is h": 5980, "vis h": 5981, "is he": 5982, "s her": 5983, "h 3": 5984, "687": 5985, "797": 5986, "ah 3": 5987, "t le": 5988, "t les": 5989, "n x": 5990, "an x": 5991, "n xl": 5992, "han x": 5993, "an xl": 5994, "n xl ": 5995, "et bp": 5996, "769": 5997, "773": 5998, "735": 5999, "4750": 6000, "389": 6001, "855": 6002, "a pa": 6003, "ls": 6004, "114": 6005, "umi": 6006, "als": 6007, "lsu": 6008, " umi": 6009, "umi ": 6010, " kal": 6011, "kals": 6012, "alsu": 6013, "lsum": 6014, "sum ": 6015, " umi ": 6016, "umi k": 6017, "mi ka": 6018, "i kal": 6019, " kals": 6020, "kalsu": 6021, "alsum": 6022, "lsum ": 6023, "at 2": 6024, "mat 2": 6025, "503": 6026, "336": 6027, "364": 6028, "644": 6029, "471": 6030, "710": 6031, "946": 6032, "466": 6033, " 33": 6034, "334": 6035, "436": 6036, "p tr": 6037, "np tr": 6038, "p tra": 6039, "b do": 6040, "db do": 6041, "b dok": 6042, "d mi": 6043, "od mi": 6044, "d mie": 6045, "248": 6046, "489": 6047, "594": 6048, "597": 6049, "331": 6050, "799": 6051, "75 ": 6052, "i gr": 6053, "si gr": 6054, "i gra": 6055, "ts": 6056, "ast": 6057, " ot": 6058, "par": 6059, "rts": 6060, "ts ": 6061, " ast": 6062, "astr": 6063, "a ot": 6064, " oto": 6065, "otop": 6066, "topa": 6067, "opar": 6068, "part": 6069, "arts": 6070, "rts ": 6071, "c ast": 6072, " astr": 6073, "astra": 6074, "tra o": 6075, "ra ot": 6076, "a oto": 6077, " otop": 6078, "otopa": 6079, "topar": 6080, "opart": 6081, "parts": 6082, "arts ": 6083, "c ra": 6084, "na b": 6085, "a bk": 6086, "c ram": 6087, "ana b": 6088, "a bks": 6089, "y z": 6090, "py z": 6091, "y za": 6092, "ipy z": 6093, "py za": 6094, "y zal": 6095, "209": 6096, "876": 6097, "377": 6098, " 684": 6099, "re m": 6100, "ore m": 6101, "g b": 6102, "ng b": 6103, "r 0": 6104, "er 0": 6105, "m pl": 6106, "m plb": 6107, "683": 6108, "872": 6109, "it 3": 6110, " 328": 6111, "bit 3": 6112, "1 k": 6113, "an d": 6114, "r z": 6115, "296": 6116, "496": 6117, "yr z": 6118, "r za": 6119, "byr z": 6120, "yr za": 6121, "r zak": 6122, "c ba": 6123, "dc ba": 6124, "c bar": 6125, "725": 6126, "e sm": 6127, "e smg": 6128, "115": 6129, " 943": 6130, "633": 6131, "063": 6132, "094": 6133, "b 74": 6134, " 749": 6135, "da b": 6136, "068": 6137, "76 ": 6138, "n y": 6139, "n yk": 6140, "n yk ": 6141, "gep": 6142, "epr": 6143, "ens": 6144, "su ": 6145, " gep": 6146, "gepr": 6147, "epre": 6148, "prek": 6149, "bens": 6150, "ensu": 6151, "nsu ": 6152, " gepr": 6153, "gepre": 6154, "eprek": 6155, "prek ": 6156, "ek be": 6157, "k ben": 6158, " bens": 6159, "bensu": 6160, "ensu ": 6161, "k l": 6162, "481": 6163, "ik l": 6164, "dik l": 6165, "085": 6166, "am b": 6167, "324": 6168, "634": 6169, "l c": 6170, "il c": 6171, "c pl": 6172, "n e": 6173, "an e": 6174, "ov": 6175, "vo": 6176, "ovo": 6177, "vo ": 6178, "ovo ": 6179, "718": 6180, "4987": 6181, " 06": 6182, "546": 6183, "5 k": 6184, "5 ki": 6185, "5 kir": 6186, "423": 6187, "096": 6188, "456": 6189, "6 k": 6190, " 95": 6191, "763": 6192, "at p": 6193, "t plb": 6194, "090": 6195, "294": 6196, "910": 6197, "e bt": 6198, "e btm": 6199, "513": 6200, "136": 6201, "020": 6202, "782": 6203, "nb": 6204, "r c": 6205, "l 6": 6206, "129": 6207, "497": 6208, "698": 6209, "98 ": 6210, "yr c": 6211, "byr c": 6212, "70 ": 6213, "b ua": 6214, "db ua": 6215, "b uan": 6216, "65 ": 6217, "127": 6218, "729": 6219, "63 ": 6220, "733": 6221, "330": 6222, "h v": 6223, "ah v": 6224, "yah v": 6225, "950": 6226, "220 ": 6227, "c bo": 6228, "a bp": 6229, "c bob": 6230, "a bpn": 6231, "b mi": 6232, "db mi": 6233, "b mie": 6234, "ta mk": 6235, "463": 6236, "4014": 6237, "069": 6238, "661": 6239, " 79": 6240, "791": 6241, "919": 6242, "198": 6243, "rc g": 6244, "c gi": 6245, "prc g": 6246, "c gia": 6247, "y o": 6248, "a j": 6249, "c spo": 6250, "iri 1": 6251, "743": 6252, " 38": 6253, "236": 6254, "350": 6255, "74 ": 6256, "a l": 6257, "c ru": 6258, "c rum": 6259, "488": 6260, "278": 6261, "788": 6262, "568": 6263, "944": 6264, "y 0": 6265, "064": 6266, "ay 0": 6267, "pay 0": 6268, "h 5": 6269, "520": 6270, "ah 5": 6271, "43 ": 6272, "en ": 6273, "ie r": 6274, "e ra": 6275, "rame": 6276, "amen": 6277, "mie r": 6278, "ie ra": 6279, "e ram": 6280, " rame": 6281, "ramen": 6282, "n dps": 6283, "697": 6284, "563": 6285, "t sm": 6286, "t smg": 6287, "516": 6288, "166": 6289, "ni 6": 6290, " 85": 6291, "704": 6292, "760": 6293, "040": 6294, "026": 6295, " 55": 6296, "rt a": 6297, " rt a": 6298, "y ku": 6299, "ipy k": 6300, "py ku": 6301, "y kur": 6302, "406": 6303, "320": 6304, " 12": 6305, "421": 6306, "586": 6307, "411": 6308, "112": 6309, "k m": 6310, "i be": 6311, "mi be": 6312, "i bel": 6313, "t ba": 6314, "mt ba": 6315, "t bar": 6316, "p z": 6317, "np z": 6318, "p za": 6319, " np z": 6320, "np za": 6321, "p zak": 6322, "577": 6323, "4132": 6324, "n z": 6325, "an z": 6326, "n za": 6327, "a or": 6328, "ran z": 6329, "an za": 6330, "n zal": 6331, "ora o": 6332, "ra or": 6333, "a ord": 6334, "i 3": 6335, "805": 6336, "k o": 6337, "e bg": 6338, "e bgr": 6339, "284": 6340, "141": 6341, " 49": 6342, "372": 6343, "o t": 6344, "to t": 6345, "e lp": 6346, "e lpg": 6347, " 98": 6348, "547": 6349, "775": 6350, "046": 6351, "199": 6352, "i 97": 6353, "5721": 6354, "681": 6355, "81 ": 6356, "wat a": 6357, "is m": 6358, "s ma": 6359, "is ma": 6360, "955": 6361, "138": 6362, "709": 6363, "502": 6364, "si d": 6365, "asi d": 6366, "bat a": 6367, "n 5": 6368, "530": 6369, "ij": 6370, "wij": 6371, "ija": 6372, "jay": 6373, "177": 6374, "779": 6375, " nan": 6376, "nand": 6377, "da w": 6378, " wij": 6379, "wija": 6380, "ijay": 6381, "jaya": 6382, " nand": 6383, "nanda": 6384, "anda ": 6385, "nda w": 6386, "da wi": 6387, "a wij": 6388, " wija": 6389, "wijay": 6390, "ijaya": 6391, "jaya ": 6392, "752": 6393, "203": 6394, "t ya": 6395, "y d": 6396, "371": 6397, "y ax": 6398, "py ax": 6399, "y axi": 6400, "il s": 6401, "ly": 6402, "437": 6403, "mul": 6404, "uly": 6405, "lya": 6406, "yad": 6407, "7492": 6408, " mul": 6409, "muly": 6410, "ulya": 6411, "lyad": 6412, "yadi": 6413, " muly": 6414, "mulya": 6415, "ulyad": 6416, "lyadi": 6417, "yadi ": 6418, "674": 6419, "00 ": 6420, "960": 6421, "at b": 6422, "764": 6423, "r bim": 6424, " 27": 6425, "on b": 6426, "n bt": 6427, "lon b": 6428, "on bt": 6429, "n btm": 6430, "535": 6431, "5 b": 6432, "wah": 6433, "hyu": 6434, "308": 6435, " wah": 6436, "wahy": 6437, "ahyu": 6438, "hyu ": 6439, "yu h": 6440, "u hi": 6441, "yat ": 6442, " wahy": 6443, "wahyu": 6444, "ahyu ": 6445, "hyu h": 6446, "yu hi": 6447, "u hid": 6448, "ayat ": 6449, "y 3": 6450, "322": 6451, "225": 6452, "065": 6453, "558": 6454, " 16": 6455, "850": 6456, "501": 6457, "8495": 6458, "ga h": 6459, "rga h": 6460, "ga he": 6461, "146 ": 6462, "367": 6463, "608": 6464, "820": 6465, "er 7": 6466, "fer 7": 6467, "g dp": 6468, "ng dp": 6469, "c pe": 6470, "dc pe": 6471, "i 7": 6472, "098": 6473, "928": 6474, "it 7": 6475, "bit 7": 6476, "ri 4": 6477, "059": 6478, "353": 6479, "186": 6480, "862": 6481, "n 8": 6482, "185": 6483, "r 1": 6484, "966": 6485, "am p": 6486, "55 ": 6487, "mi g": 6488, "ami g": 6489, "452": 6490, "o r": 6491, "o ru": 6492, "us b": 6493, "273": 6494, "i tn": 6495, "i tng": 6496, "n 2": 6497, "417": 6498, "a z": 6499, "a za": 6500, "0 k": 6501, "939": 6502, "5390": 6503, "390 ": 6504, "5390 ": 6505, "859": 6506, "598": 6507, "338": 6508, "807": 6509, "412": 6510, "mt rs": 6511, "tra s": 6512, "375": 6513, "620": 6514, "mi l": 6515, "i li": 6516, "ami l": 6517, "i lin": 6518, "b ba": 6519, "db ba": 6520, "b bar": 6521, "08 ": 6522, "b 26": 6523, "ri 9": 6524, "a kur": 6525, "e mk": 6526, "e mks": 6527, " 73": 6528, "824": 6529, " 517": 6530, "h sm": 6531, "ah sm": 6532, "h smg": 6533, "sa b": 6534, "ssa b": 6535, "s g": 6536, "ri 5": 6537, "on m": 6538, "n ml": 6539, "n mlg": 6540, "mt c": 6541, "pmt c": 6542, "b cb": 6543, "db cb": 6544, "b cbn": 6545, "np b": 6546, " np b": 6547, "759": 6548, "408": 6549, "623": 6550, "let l": 6551, "et li": 6552, "fer 2": 6553, "ne p": 6554, "c ma": 6555, "614": 6556, "455": 6557, "262": 6558, "067": 6559, "mnt b": 6560, "nt bu": 6561, "t buk": 6562, "rc r": 6563, "prc r": 6564, "527": 6565, "t cr": 6566, "t crb": 6567, "952": 6568, " 75": 6569, "753": 6570, "189": 6571, "b sa": 6572, "db sa": 6573, "m s": 6574, "055": 6575, "699": 6576, "207": 6577, "85 ": 6578, "sto b": 6579, "815": 6580, "054": 6581, "890": 6582, "505": 6583, "341": 6584, "261": 6585, "61 ": 6586, "249": 6587, "543": 6588, "246": 6589, "3159": 6590, "848": 6591, "82 ": 6592, "109": 6593, "118": 6594, "574": 6595, "on sb": 6596, "c war": 6597, "596": 6598, "34 ": 6599, "p pe": 6600, "np pe": 6601, "613": 6602, "131": 6603, "180": 6604, "h 7": 6605, "381": 6606, "c i": 6607, "dc i": 6608, "c in": 6609, "edc i": 6610, "dc in": 6611, "c inu": 6612, "i ru": 6613, "i rut": 6614, "rt p": 6615, "mt p": 6616, "pmt p": 6617, " rt l": 6618, "n 4": 6619, "575": 6620, "993": 6621, "68 ": 6622, "748": 6623, "554": 6624, "340": 6625, "402": 6626, "t zak": 6627, "i y": 6628, "m dps": 6629, "ry s": 6630, "dry s": 6631, "han p": 6632, "445": 6633, "886": 6634, "646": 6635, "at 6": 6636, "462 ": 6637, "rc n": 6638, "prc n": 6639, "522": 6640, "6044": 6641, "t se": 6642, "mt se": 6643, "kah s": 6644, "ri pu": 6645, "pak p": 6646, "k pay": 6647, "935": 6648, "8 b": 6649, "041": 6650, "db 81": 6651, "117": 6652, "17 ": 6653, "ik k": 6654, "0011": 6655, "dik k": 6656, "ari 8": 6657, "dc ne": 6658, "g c": 6659, "ng c": 6660, "l me": 6661, "il me": 6662, "l met": 6663, "368": 6664, "lah 3": 6665, "mt le": 6666, "y 7": 6667, "478": 6668, "r la": 6669, "yr la": 6670, "r lau": 6671, "509": 6672, " 047": 6673, "p h": 6674, "np h": 6675, "p ha": 6676, " np h": 6677, "np ha": 6678, "p hap": 6679, "2 c": 6680, "542 ": 6681, "2 ci": 6682, "2 cim": 6683, "ora p": 6684, "ra pa": 6685, "a pay": 6686, "v m": 6687, "tv m": 6688, "v mk": 6689, "ktv m": 6690, "tv mk": 6691, "v mks": 6692, "k n": 6693, "k nu": 6694, "k nur": 6695, "om b": 6696, "bom b": 6697, "592": 6698, "711": 6699, "ia 5": 6700, "4347": 6701, "685": 6702, "er 9": 6703, "19 ": 6704, "f 33": 6705, "rf 33": 6706, "rta m": 6707, "n ku": 6708, "man k": 6709, "an ku": 6710, "n kur": 6711, "310": 6712, "l r": 6713, "l ra": 6714, "i 25": 6715, "9975": 6716, "r 8": 6717, " 92": 6718, "926": 6719, "4209": 6720, "47 ": 6721, "7 d": 6722, "e t": 6723, "c me": 6724, "re t": 6725, "e tn": 6726, "c met": 6727, "ore t": 6728, "re tn": 6729, "e tng": 6730, "i 87": 6731, "ct": 6732, "y u": 6733, "py u": 6734, "y ua": 6735, "ipy u": 6736, "py ua": 6737, "y uan": 6738, "778": 6739, "mb 6": 6740, "b 68": 6741, "imb 6": 6742, "c co": 6743, "e ml": 6744, "c con": 6745, "e mlg": 6746, "087": 6747, "ter 0": 6748, "a 3": 6749, " 34": 6750, "761": 6751, "168": 6752, "133": 6753, "mt i": 6754, "pmt i": 6755, "mt in": 6756, "ta sb": 6757, "361": 6758, "529": 6759, "291 ": 6760, "1 ki": 6761, "1 kir": 6762, "732": 6763, " 873": 6764, "677": 6765, "h l": 6766, "ah l": 6767, "o 6": 6768, "309": 6769, "db 74": 6770, "156": 6771, "745": 6772, "104": 6773, "241": 6774, "l y": 6775, "al y": 6776, "l ya": 6777, "ial y": 6778, "al ya": 6779, "l yan": 6780, "n 9": 6781, "3605": 6782, "an y": 6783, "an yk": 6784, " 01": 6785, "326": 6786, "810": 6787, "c z": 6788, "dc z": 6789, "c za": 6790, "edc z": 6791, "dc za": 6792, "c zak": 6793, "k 0": 6794, " 085": 6795, "m bg": 6796, "yam b": 6797, "am bg": 6798, "m bgr": 6799, "569": 6800, "936": 6801, "ri 0": 6802, "i 08": 6803, "863": 6804, " 086": 6805, "re so": 6806, "f 58": 6807, "rf 58": 6808, "art b": 6809, "345": 6810, "694": 6811, "4291": 6812, "h 1": 6813, "ah 1": 6814, "968": 6815, "566": 6816, " 420": 6817, "6 ke": 6818, "632 ": 6819, "6 ke ": 6820, "c no": 6821, "dc no": 6822, "c not": 6823, "083": 6824, "3 b": 6825, "f 09": 6826, "rf 09": 6827, "722": 6828, "3910": 6829, "s n": 6830, "mi s": 6831, " 45": 6832, "g l": 6833, "ng l": 6834, "g lp": 6835, "ng lp": 6836, "g lpg": 6837, "t 0": 6838, "680": 6839, "027": 6840, "y 8": 6841, "r cu": 6842, "il 6": 6843, "yr cu": 6844, "r cuc": 6845, "bil 6": 6846, "b ax": 6847, "db ax": 6848, "b axi": 6849, "319": 6850, "570": 6851, "0 bn": 6852, "0 bni": 6853, "r f": 6854, "766": 6855, "667": 6856, "yr f": 6857, "r fo": 6858, "675 ": 6859, "byr f": 6860, "yr fo": 6861, "r fot": 6862, "105": 6863, "056": 6864, "7712": 6865, "3165": 6866, "662": 6867, "ri 6": 6868, "903": 6869, "39 ": 6870, "0750": 6871, "298": 6872, "9 p": 6873, "163": 6874, "t ah": 6875, "300": 6876, "h vi": 6877, "ah vi": 6878, "h vin": 6879, "7272": 6880, "b as": 6881, "db as": 6882, "b asu": 6883, "dc bo": 6884, "ta so": 6885, "k v": 6886, "240": 6887, "826": 6888, "409": 6889, " 47": 6890, "126": 6891, "2 k": 6892, "t iu": 6893, "t iur": 6894, "rc gi": 6895, "t dpk": 6896, "py o": 6897, "y or": 6898, "ipy o": 6899, "py or": 6900, "y ora": 6901, "a jk": 6902, "a jkt": 6903, "rc s": 6904, "prc s": 6905, "rc sp": 6906, "800": 6907, "84 ": 6908, " 190": 6909, "t bg": 6910, "t bgr": 6911, "874": 6912, "i bk": 6913, "i bks": 6914, "t x": 6915, "t xl": 6916, "t xl ": 6917, " 18": 6918, "812": 6919, "774": 6920, "881": 6921, "8 k": 6922, "256": 6923, " 434": 6924, " 59": 6925, "440": 6926, "441": 6927, "bri 2": 6928, "a e": 6929, "ga e": 6930, "a ek": 6931, "rga e": 6932, "ga ek": 6933, "a eko": 6934, "7706": 6935, "c ap": 6936, "dc ap": 6937, "c apo": 6938, "et c": 6939, "bet c": 6940, "i ml": 6941, "i mlg": 6942, "004": 6943, " 520": 6944, "si sa": 6945, "c mi": 6946, "men ": 6947, "c mie": 6948, "amen ": 6949, "756": 6950, "rt d": 6951, "696": 6952, "851": 6953, "9679": 6954, "ani 6": 6955, "279": 6956, "h dp": 6957, "ah dp": 6958, "571": 6959, "565": 6960, "971": 6961, "a bu": 6962, "a bud": 6963, "a 26": 6964, " 266": 6965, "6695": 6966, "t 36": 6967, "t 84": 6968, " 840": 6969, "303": 6970, "215": 6971, "6541": 6972, "1123": 6973, "ik m": 6974, "i dp": 6975, "ga r": 6976, "325": 6977, "t 9": 6978, "573": 6979, "ri 3": 6980, "iri 3": 6981, "mi a": 6982, "ami a": 6983, "l j": 6984, "751": 6985, "713": 6986, "713 ": 6987, " 545": 6988, "5998": 6989, "ne b": 6990, "one b": 6991, "r 32": 6992, "4621": 6993, "er 32": 6994, "y 4": 6995, "ay 4": 6996, "pay 4": 6997, "i f": 6998, "mi f": 6999, "ami f": 7000, "p i": 7001, "np i": 7002, "p in": 7003, " np i": 7004, "np in": 7005, "p inu": 7006, "tom": 7007, "omo": 7008, "mor": 7009, "oro": 7010, "o c": 7011, " tom": 7012, "tomo": 7013, "omor": 7014, "moro": 7015, "oro ": 7016, "ro c": 7017, "o co": 7018, " tomo": 7019, "tomor": 7020, "omoro": 7021, "moro ": 7022, "oro c": 7023, "ro co": 7024, "o cof": 7025, "835": 7026, "ta 9": 7027, "ata 9": 7028, "0462": 7029, "907": 7030, "ni 9": 7031, " 973": 7032, " 568": 7033, "vis m": 7034, "092": 7035, "8719": 7036, "510": 7037, "a fa": 7038, "387": 7039, "929": 7040, "a ir": 7041, "a ira": 7042, "t ci": 7043, "n ke": 7044, "an ke": 7045, "721 ": 7046, "9317": 7047, "e pl": 7048, "dc ni": 7049, "e plb": 7050, "ca 7": 7051, "bca 7": 7052, "mt y": 7053, "pmt y": 7054, "mt ya": 7055, "t yam": 7056, "is k": 7057, "ris k": 7058, "py d": 7059, "y do": 7060, "ipy d": 7061, "py do": 7062, "y dok": 7063, "ipy a": 7064, "s l": 7065, "ail s": 7066, "374": 7067, "400": 7068, "an 3": 7069, "73 ": 7070, "ar 9": 7071, "t pln": 7072, "yar 9": 7073, "335": 7074, "n mk": 7075, "n mks": 7076, "s sm": 7077, "kan k": 7078, "n kan": 7079, "s smg": 7080, "p 3": 7081, "351": 7082, "op 3": 7083, "hop 3": 7084, "170": 7085, "703 ": 7086, "t be": 7087, "mt be": 7088, "5 bc": 7089, "5 bca": 7090, "9841": 7091, "7931": 7092, "rta s": 7093, "ja p": 7094, "nja p": 7095, "ja pl": 7096, "a pla": 7097, "a tn": 7098, "a tng": 7099, "561": 7100, "610": 7101, "106": 7102, "ay 3": 7103, "pay 3": 7104, "878": 7105, "g s": 7106, "ng s": 7107, "g so": 7108, "ung s": 7109, "ng so": 7110, "g sol": 7111, "811": 7112, "p as": 7113, "np as": 7114, "p asu": 7115, "c ka": 7116, "ta p": 7117, "dc ka": 7118, "c kaf": 7119, "i ok": 7120, "i oki": 7121, "499": 7122, "1 h": 7123, "965": 7124, "f 28": 7125, "rf 28": 7126, " 21": 7127, "t bd": 7128, "t bdg": 7129, "t bk": 7130, "t bks": 7131, "274": 7132, "581": 7133, " 367": 7134, "8060": 7135, "896 ": 7136, " 746": 7137, "ung d": 7138, "g dpk": 7139, "anb": 7140, "c pec": 7141, "n buk": 7142, " 71": 7143, "150": 7144, "831": 7145, "474": 7146, "428": 7147, "285": 7148, "i 70": 7149, "532": 7150, "385": 7151, "e bp": 7152, "e bpn": 7153, "801": 7154, "723": 7155, "0185": 7156, "143": 7157, "n cb": 7158, "er 1": 7159, "an cb": 7160, "n cbn": 7161, "iam p": 7162, "528": 7163, "531": 7164, "814": 7165, "5154": 7166, "508": 7167, "7388": 7168, "158": 7169, "ni 8": 7170, "i 84": 7171, "c se": 7172, "dc se": 7173, "c sed": 7174, "m pb": 7175, "m pbr": 7176, "is b": 7177, "116": 7178, "1605": 7179, "pi t": 7180, "opi t": 7181, "pi tn": 7182, "480": 7183, "808": 7184, "538": 7185, "940": 7186, "2541": 7187, "an dp": 7188, "263": 7189, "f 02": 7190, "rf 02": 7191, "373": 7192, "51 b": 7193, "da s": 7194, "da sb": 7195, "620 ": 7196, "t ne": 7197, "mt ne": 7198, "t new": 7199, "9 d": 7200, "223": 7201, "8986": 7202, "3122": 7203, "636": 7204, "601": 7205, "ga k": 7206, "rga k": 7207, "ga ku": 7208, "ta 7": 7209, "ic b": 7210, "lic b": 7211, "is s": 7212, "vis s": 7213, "442": 7214, "2 m": 7215, "c cu": 7216, "dc cu": 7217, "c cuc": 7218, "b 77": 7219, "db 77": 7220, "i gu": 7221, "mi gu": 7222, "i gun": 7223, "582": 7224, "941": 7225, "i c": 7226, "c be": 7227, "dc be": 7228, "c aq": 7229, "dc aq": 7230, "c aqi": 7231, "qah p": 7232, "518": 7233, "lon m": 7234, "762 ": 7235, "275": 7236, "7549": 7237, "r 6": 7238, "rt g": 7239, "t gu": 7240, " rt g": 7241, "rt gu": 7242, "t gun": 7243, "147": 7244, "741": 7245, "370": 7246, "705": 7247, "050 ": 7248, " 077": 7249, "2245": 7250, "5174": 7251, "ee s": 7252, "fee s": 7253, "t 4": 7254, " 659": 7255, "n sm": 7256, "an sm": 7257, "n smg": 7258, "e dps": 7259, "ine p": 7260, "g bk": 7261, "ng bk": 7262, "g bks": 7263, "rt o": 7264, " rt o": 7265, "kh": 7266, "sat": 7267, "te ": 7268, " kh": 7269, "kha": 7270, "sen": 7271, "nay": 7272, "sate": 7273, "ate ": 7274, "te k": 7275, "e kh": 7276, " kha": 7277, "khas": 7278, "has ": 7279, "s se": 7280, " sen": 7281, "sena": 7282, "enay": 7283, "naya": 7284, "yan ": 7285, "sate ": 7286, "ate k": 7287, "te kh": 7288, "e kha": 7289, " khas": 7290, "khas ": 7291, "has s": 7292, "as se": 7293, "s sen": 7294, " sena": 7295, "senay": 7296, "enaya": 7297, "nayan": 7298, "ayan ": 7299, "d b": 7300, "od b": 7301, "am m": 7302, "ood b": 7303, "ita y": 7304, "950 ": 7305, " 614": 7306, "957 ": 7307, "617": 7308, " 139": 7309, " un": 7310, "4 k": 7311, "4 ki": 7312, "4 kir": 7313, "n bd": 7314, "an bd": 7315, "n bdg": 7316, "2628": 7317, "2 b": 7318, "7394": 7319, "252 ": 7320, "s u": 7321, "is u": 7322, "s ur": 7323, "vis u": 7324, "is ur": 7325, "s urb": 7326, "s y": 7327, "587": 7328, "201": 7329, "012": 7330, "439": 7331, "ora b": 7332, "ra be": 7333, "a bel": 7334, "f 10": 7335, "rf 10": 7336, "c he": 7337, "c her": 7338, "b sal": 7339, "ga z": 7340, "rga z": 7341, "ga za": 7342, "a zak": 7343, "4160": 7344, "m so": 7345, "m sol": 7346, "838": 7347, "p ap": 7348, "np ap": 7349, "p apo": 7350, "3148": 7351, "686": 7352, "n 51": 7353, "8660": 7354, "apy t": 7355, " 720": 7356, "h 4": 7357, "ah 4": 7358, "456 ": 7359, "269": 7360, "ja c": 7361, "a co": 7362, "nja c": 7363, "ja co": 7364, "a con": 7365, "ri t": 7366, "tri t": 7367, "iri 9": 7368, "990": 7369, "992": 7370, "re d": 7371, "ore d": 7372, "re dp": 7373, "176": 7374, "010": 7375, "7467": 7376, "140 ": 7377, "c e": 7378, "dc e": 7379, "c ex": 7380, "edc e": 7381, "dc ex": 7382, "c exp": 7383, "007": 7384, "ln 8": 7385, "pln 8": 7386, "2865": 7387, "0 p": 7388, "1953": 7389, " 447": 7390, "297": 7391, "860 ": 7392, "c pla": 7393, "p co": 7394, "np co": 7395, "p con": 7396, "q b": 7397, "aq b": 7398, "faq b": 7399, "t f": 7400, "l u": 7401, "il u": 7402, "l ur": 7403, "ail u": 7404, "il ur": 7405, "l urb": 7406, "246 ": 7407, "884": 7408, "u p": 7409, "781": 7410, " 655": 7411, "022": 7412, "lon s": 7413, "db 26": 7414, "948": 7415, "p mk": 7416, "p mks": 7417, "657": 7418, "a 76": 7419, " 762": 7420, "a 762": 7421, "7 y": 7422, "234": 7423, "b 46": 7424, "op b": 7425, "p pet": 7426, "hop b": 7427, "212 ": 7428, "4576": 7429, "mat 5": 7430, "ah 7": 7431, " 252": 7432, "at c": 7433, "at cr": 7434, "np l": 7435, "p la": 7436, " np l": 7437, "np la": 7438, "apy a": 7439, "235 ": 7440, "i se": 7441, "si se": 7442, "i seh": 7443, "861": 7444, "c j": 7445, "c jk": 7446, "c jkt": 7447, " 83": 7448, "431": 7449, "7887": 7450, "682": 7451, "f 37": 7452, "rf 37": 7453, " 399": 7454, "270": 7455, " 822": 7456, "015": 7457, "3 k": 7458, " 295": 7459, "p 1": 7460, "ri ru": 7461, "t ca": 7462, "rt ca": 7463, "t cah": 7464, "yr 3": 7465, "r 3 ": 7466, "byr 3": 7467, "yr 3 ": 7468, "r 3 i": 7469, "rt li": 7470, "ita b": 7471, "299": 7472, "045": 7473, " ri": 7474, " rin": 7475, "rina": 7476, "na w": 7477, " rina": 7478, "rina ": 7479, "ina w": 7480, "na wa": 7481, "at pu": 7482, "2052": 7483, "899": 7484, "540": 7485, "o 9": 7486, "b f": 7487, "db f": 7488, "b fo": 7489, " db f": 7490, "db fo": 7491, "b fot": 7492, "b 93": 7493, "db 93": 7494, "h bg": 7495, "ah bg": 7496, "h bgr": 7497, "057": 7498, "691": 7499, "3482": 7500, "579": 7501, "s bk": 7502, "us bk": 7503, "s bks": 7504, "333": 7505, "f 13": 7506, "rf 13": 7507, "378": 7508, "8 m": 7509, "609": 7510, "9526": 7511, "817": 7512, "485": 7513, "mt ru": 7514, "9343": 7515, "et p": 7516, "et pl": 7517, "647": 7518, "ca 1": 7519, "4464": 7520, "bca 1": 7521, "5 p": 7522, "3402": 7523, "245 ": 7524, "k 1": 7525, "159 ": 7526, "mt z": 7527, "pmt z": 7528, "mt za": 7529, "ea p": 7530, "tea p": 7531, "458": 7532, " 621": 7533, "6214": 7534, "1445": 7535, "vat 6": 7536, "et j": 7537, "ket j": 7538, "et jk": 7539, "rc ni": 7540, " 652": 7541, "6522": 7542, "567": 7543, "on 3": 7544, "3567": 7545, "4142": 7546, "1425": 7547, "167": 7548, "638": 7549, "382": 7550, "r 31": 7551, " 316": 7552, "828 ": 7553, "er 31": 7554, "444 ": 7555, "t sed": 7556, " 419": 7557, "9358": 7558, "358 ": 7559, "9358 ": 7560, "162": 7561, "9973": 7562, "7304": 7563, "0416": 7564, "1622": 7565, "622 ": 7566, "1622 ": 7567, "589": 7568, "9736": 7569, "360 ": 7570, "la r": 7571, "e 8": 7572, "is a": 7573, "vis a": 7574, "is ad": 7575, "s adi": 7576, "i 88": 7577, "8836": 7578, "8365": 7579, "era d": 7580, "ra dp": 7581, "cic": 7582, "ici": 7583, "cil": 7584, " cic": 7585, "cici": 7586, "icil": 7587, "cila": 7588, "lan ": 7589, "ing c": 7590, " cici": 7591, "cicil": 7592, "icila": 7593, "cilan": 7594, "ilan ": 7595, "one d": 7596, "210": 7597, "v d": 7598, "tv d": 7599, "v dp": 7600, "ktv d": 7601, "tv dp": 7602, "v dps": 7603, "at j": 7604, "at jk": 7605, "i 86": 7606, " 860": 7607, "0772": 7608, "iri 8": 7609, "t lo": 7610, "mt lo": 7611, "t lot": 7612, "6879": 7613, "8797": 7614, "797 ": 7615, "fan s": 7616, "an sb": 7617, "787": 7618, "877": 7619, "8776": 7620, "7509": 7621, "0977": 7622, "803": 7623, "031": 7624, "3898": 7625, "8031": 7626, "v s": 7627, "tv s": 7628, "ktv s": 7629, "f 90": 7630, "rf 90": 7631, "al v": 7632, "ial v": 7633, "ak n": 7634, "nak n": 7635, "ak nu": 7636, "927": 7637, "2771": 7638, "2379": 7639, "7904": 7640, "904 ": 7641, "7904 ": 7642, "nt 3": 7643, "5033": 7644, "0336": 7645, "6443": 7646, "4434": 7647, "3471": 7648, "4710": 7649, "710 ": 7650, "sia 5": 7651, "50336": 7652, "43471": 7653, "4710 ": 7654, "9946": 7655, "6857": 7656, "fer 9": 7657, "y y": 7658, "py y": 7659, "y ya": 7660, "979 ": 7661, "apy y": 7662, "py ya": 7663, "y yam": 7664, "906": 7665, "061": 7666, " 334": 7667, "f 334": 7668, "989": 7669, "tk 2": 7670, "2489": 7671, "8989": 7672, "924 ": 7673, "stk 2": 7674, "825": 7675, "949": 7676, "959": 7677, "7 k": 7678, "7 ki": 7679, "7 kir": 7680, "e y": 7681, "ja m": 7682, "nja m": 7683, "171": 7684, " 823": 7685, "8233": 7686, "3101": 7687, " 8233": 7688, "il r": 7689, "ail r": 7690, "il ra": 7691, "l ram": 7692, "ana m": 7693, "ic m": 7694, "lic m": 7695, "250": 7696, "dc ra": 7697, "ar 8": 7698, " 865": 7699, "yar 8": 7700, "265": 7701, "f 92": 7702, "8420": 7703, "2099": 7704, "099 ": 7705, "rf 92": 7706, "450": 7707, "5047": 7708, "7 da": 7709, "7 dan": 7710, " 879": 7711, "9876": 7712, "7658": 7713, "6585": 7714, "5852": 7715, "852 ": 7716, "ri 87": 7717, "i 879": 7718, "on l": 7719, "n lp": 7720, "on lp": 7721, "n lpg": 7722, "037": 7723, "780": 7724, "0 l": 7725, "6847": 7726, "4703": 7727, "0 le": 7728, "b 684": 7729, "0 les": 7730, "dc co": 7731, "re ml": 7732, "008": 7733, "8730": 7734, "om p": 7735, "bom p": 7736, "om pl": 7737, "683 ": 7738, "3287": 7739, "2872": 7740, " 3287": 7741, "32872": 7742, "t inu": 7743, "zta s": 7744, "1536": 7745, "5291": 7746, "4962": 7747, "962 ": 7748, "op p": 7749, "p pb": 7750, "hop p": 7751, "op pb": 7752, "p pbr": 7753, "6777": 7754, "re sm": 7755, "n iu": 7756, "9430": 7757, "4302": 7758, "0211": 7759, "2115": 7760, "an iu": 7761, "n iur": 7762, "94302": 7763, "k e": 7764, "386": 7765, "868": 7766, "o 63": 7767, "689 ": 7768, "4 c": 7769, "9306": 7770, "3063": 7771, "0630": 7772, "094 ": 7773, "4 ca": 7774, "b 749": 7775, "4 cah": 7776, "5 c": 7777, "f 72": 7778, "525 ": 7779, "5 ci": 7780, "rf 72": 7781, "5 cim": 7782, "0710": 7783, "1049": 7784, "492 ": 7785, "ial s": 7786, "mt e": 7787, "t ex": 7788, "xi p": 7789, "i pl": 7790, "pmt e": 7791, "mt ex": 7792, "t exp": 7793, "axi p": 7794, "xi pl": 7795, "i plb": 7796, "p ah": 7797, "np ah": 7798, "p aha": 7799, "nda b": 7800, "da bg": 7801, "a ya": 7802, "a yan": 7803, "f 67": 7804, "3068": 7805, "6837": 7806, "rf 67": 7807, "c 2": 7808, "ac 2": 7809, " 289": 7810, "2896": 7811, " ac 2": 7812, " 2896": 7813, "t ka": 7814, "9436": 7815, "605 ": 7816, " 9436": 7817, "fan y": 7818, "u m": 7819, "su m": 7820, "nsu m": 7821, "rc me": 7822, "k le": 7823, "4810": 7824, "ik le": 7825, "k les": 7826, "q s": 7827, "aq s": 7828, "q sm": 7829, "faq s": 7830, "aq sm": 7831, "q smg": 7832, "856": 7833, "560": 7834, "tk 0": 7835, "0856": 7836, "stk 0": 7837, " 0856": 7838, "rc b": 7839, "c bu": 7840, "prc b": 7841, "c bub": 7842, "iri 0": 7843, "ri 08": 7844, "4 b": 7845, "4498": 7846, "4985": 7847, "l co": 7848, "ail c": 7849, "il co": 7850, "l con": 7851, " 584": 7852, "-m": 7853, "eli": 7854, "e-m": 7855, "-mo": 7856, "embe": 7857, "beli": 7858, "elia": 7859, "n e-": 7860, " e-m": 7861, "e-mo": 7862, "-mon": 7863, "pembe": 7864, "embel": 7865, "mbeli": 7866, "belia": 7867, "elian": 7868, "lian ": 7869, "ian e": 7870, "an e-": 7871, "n e-m": 7872, " e-mo": 7873, "e-mon": 7874, " ov": 7875, " ovo": 7876, " ovo ": 7877, "5498": 7878, "9871": 7879, "8718": 7880, "718 ": 7881, "49871": 7882, "8718 ": 7883, "f 69": 7884, "9429": 7885, "1 bn": 7886, "rf 69": 7887, "4291 ": 7888, "1 bni": 7889, "895": 7890, "954": 7891, "645": 7892, "n h": 7893, "b 06": 7894, "6289": 7895, "an h": 7896, "db 06": 7897, "man h": 7898, "i ya": 7899, "i yan": 7900, " 104": 7901, "0423": 7902, "233 ": 7903, "676": 7904, "k 42": 7905, "6845": 7906, "66 k": 7907, "8526": 7908, "7632": 7909, "ek 42": 7910, " 4209": 7911, "66 ke": 7912, "la t": 7913, "a ti": 7914, "ola t": 7915, "la ti": 7916, "a tik": 7917, "832": 7918, "8329": 7919, "453 ": 7920, "b 39": 7921, "9107": 7922, "2289": 7923, "db 39": 7924, "39107": 7925, "is n": 7926, "s na": 7927, "vis n": 7928, "ce b": 7929, "ice b": 7930, "b 45": 7931, "3602": 7932, "db 45": 7933, "t war": 7934, "276 ": 7935, "ay 8": 7936, " 827": 7937, "8277": 7938, "7821": 7939, "1454": 7940, "454 ": 7941, "pay 8": 7942, "164": 7943, "2916": 7944, "6497": 7945, "f 25": 7946, "9231": 7947, "3195": 7948, "9570": 7949, "rf 25": 7950, "403": 7951, "an 6": 7952, "056 ": 7953, "u j": 7954, "bu j": 7955, "u jo": 7956, " 771": 7957, "1242": 7958, "2423": 7959, "165 ": 7960, "ibu j": 7961, "bu jo": 7962, "u jok": 7963, " 7712": 7964, "g a": 7965, "ng a": 7966, "g ax": 7967, "ing a": 7968, "ng ax": 7969, "g axi": 7970, "627": 7971, "4 m": 7972, "4224": 7973, "224 ": 7974, "4 me": 7975, "iri 6": 7976, "4 meg": 7977, "9 k": 7978, "407": 7979, "506": 7980, " 429": 7981, "2962": 7982, "6219": 7983, "2190": 7984, "9039": 7985, "b 91": 7986, " 912": 7987, "9 pa": 7988, "ya r": 7989, "db 91": 7990, "9 pan": 7991, "tya r": 7992, "ya ru": 7993, "b 43": 7994, "4327": 7995, "0016": 7996, "db 43": 7997, "7220": 7998, "7220 ": 7999, "la b": 8000, "ola b": 8001, "na bd": 8002, "ita s": 8003, "mt d": 8004, "t du": 8005, "pmt d": 8006, "mt du": 8007, "t duf": 8008, "k ve": 8009, "k ver": 8010, "it 2": 8011, "0144": 8012, "4463": 8013, "826 ": 8014, "bit 2": 8015, "40144": 8016, "ita m": 8017, "ta ml": 8018, "9 v": 8019, " 206": 8020, "9 ve": 8021, "9 ver": 8022, "606": 8023, "k 7": 8024, "k 47": 8025, "6612": 8026, "062 ": 8027, "ek 7": 8028, "9198": 8029, "ek 47": 8030, "rek 7": 8031, "et d": 8032, "b ap": 8033, "db ap": 8034, "ion s": 8035, "u d": 8036, "dc g": 8037, "edc g": 8038, "5800": 8039, "0062": 8040, "1905": 8041, "0534": 8042, "5348": 8043, "05348": 8044, "t he": 8045, "et bg": 8046, "f 88": 8047, " 887": 8048, "8874": 8049, "7430": 8050, "rf 88": 8051, "xi b": 8052, "axi b": 8053, "xi bk": 8054, " 389": 8055, "et x": 8056, "bet x": 8057, "et xl": 8058, "539 ": 8059, "wi m": 8060, "awi m": 8061, "181": 8062, "3507": 8063, "774 ": 8064, "ga l": 8065, "rga l": 8066, "dc ru": 8067, "k 43": 8068, "4348": 8069, "8127": 8070, " 025": 8071, "5689": 8072, "8963": 8073, "9630": 8074, "6302": 8075, "302 ": 8076, "ek 43": 8077, "k 434": 8078, "5994": 8079, "vat 5": 8080, "i 24": 8081, "1980": 8082, "9804": 8083, "804 ": 8084, "ri 24": 8085, "9804 ": 8086, "q y": 8087, "aq y": 8088, "q yk": 8089, "faq y": 8090, "aq yk": 8091, "q yk ": 8092, "h n": 8093, "ah n": 8094, "h nu": 8095, "yah n": 8096, "ah nu": 8097, "h nur": 8098, "7064": 8099, "t cb": 8100, "et cb": 8101, "t cbn": 8102, "np e": 8103, "p ex": 8104, "xi m": 8105, " np e": 8106, "np ex": 8107, "p exp": 8108, "axi m": 8109, "xi ml": 8110, "m l": 8111, "m lp": 8112, "m lpg": 8113, "h 52": 8114, "ah 52": 8115, "f 43": 8116, "4643": 8117, "rf 43": 8118, "631 ": 8119, "rt z": 8120, " rt z": 8121, "rt za": 8122, "t di": 8123, " rt d": 8124, "rt di": 8125, "t din": 8126, "nt s": 8127, "6798": 8128, "7985": 8129, "5166": 8130, "9 b": 8131, "0962": 8132, "h dps": 8133, "714": 8134, "nt i": 8135, "7146": 8136, "mnt i": 8137, "nt iu": 8138, "7 p": 8139, " 704": 8140, "4017": 8141, "7 pa": 8142, "7 pan": 8143, "688": 8144, " 002": 8145, "ta d": 8146, "ta dp": 8147, "a dps": 8148, "bu a": 8149, "5491": 8150, "ibu a": 8151, "lah 5": 8152, "ga bu": 8153, "583": 8154, "t an": 8155, "ma 2": 8156, "2669": 8157, "6958": 8158, "3295": 8159, "295 ": 8160, "rt an": 8161, "t ani": 8162, "a 266": 8163, "3295 ": 8164, "y c": 8165, "ry c": 8166, "y cr": 8167, "dry c": 8168, "ry cr": 8169, "y crb": 8170, "6427": 8171, "4276": 8172, "2769": 8173, "690 ": 8174, "42769": 8175, "r d": 8176, "r dp": 8177, "it 8": 8178, "9320": 8179, "bit 8": 8180, "o 5": 8181, "523": 8182, "5239": 8183, "2393": 8184, "3930": 8185, "327 ": 8186, "52393": 8187, "p f": 8188, "np f": 8189, "p fo": 8190, " np f": 8191, "np fo": 8192, "p fot": 8193, "int t": 8194, "nt tn": 8195, "n bg": 8196, "gan b": 8197, "n bgr": 8198, "f 12": 8199, " 125": 8200, "397 ": 8201, "rf 12": 8202, "5865": 8203, "8654": 8204, "86541": 8205, " op": 8206, "opt": 8207, "pti": 8208, "mel": 8209, " opt": 8210, "opti": 8211, "ptik": 8212, "tik ": 8213, "k me": 8214, " mel": 8215, "mela": 8216, " opti": 8217, "optik": 8218, "ptik ": 8219, "tik m": 8220, "ik me": 8221, "k mel": 8222, " mela": 8223, "op s": 8224, "hop s": 8225, "a rat": 8226, "2577": 8227, "mp b": 8228, "smp b": 8229, "465": 8230, "4654": 8231, "546 ": 8232, "t yk": 8233, "t yk ": 8234, "7356": 8235, "5624": 8236, "624 ": 8237, "5624 ": 8238, "5 l": 8239, "b 04": 8240, "0404": 8241, "5 li": 8242, "db 04": 8243, "5 lin": 8244, "i ah": 8245, "mi ah": 8246, "i ahm": 8247, "al j": 8248, "ial j": 8249, "ik o": 8250, "k ol": 8251, "4475": 8252, "dik o": 8253, "ik ol": 8254, "k oli": 8255, "5175": 8256, "5599": 8257, "ne bg": 8258, "3284": 8259, "2846": 8260, "8462": 8261, "2141": 8262, "1413": 8263, "413 ": 8264, "r 328": 8265, " 3284": 8266, " 493": 8267, "4937": 8268, "i fa": 8269, "mi fa": 8270, "i faj": 8271, "zta m": 8272, "o to": 8273, "sto t": 8274, "to to": 8275, "o tom": 8276, "ar b": 8277, "sar b": 8278, "c asu": 8279, "c f": 8280, "dc f": 8281, "c fo": 8282, "edc f": 8283, "dc fo": 8284, "c fot": 8285, " 988": 8286, " 547": 8287, "5477": 8288, "f 547": 8289, " 5477": 8290, "tk 4": 8291, "4190": 8292, "9070": 8293, "stk 4": 8294, "7219": 8295, "1997": 8296, "i 973": 8297, "ca 5": 8298, "bca 5": 8299, "s mat": 8300, "395": 8301, "9555": 8302, "138 ": 8303, "n j": 8304, "dc mi": 8305, "247": 8306, "0924": 8307, "2475": 8308, "502 ": 8309, "24750": 8310, "7193": 8311, "87193": 8312, "591": 8313, "f 31": 8314, "1251": 8315, "510 ": 8316, "rf 31": 8317, "i me": 8318, "i meg": 8319, "9830": 8320, "8306": 8321, "98306": 8322, "h f": 8323, "ah f": 8324, "yah f": 8325, "k li": 8326, "929 ": 8327, "ik li": 8328, "k lin": 8329, "ga i": 8330, "rga i": 8331, "ga ir": 8332, "sit": 8333, "n ke ": 8334, "161": 8335, "bu h": 8336, "6316": 8337, "6125": 8338, "ibu h": 8339, " 6316": 8340, "5721 ": 8341, "ami s": 8342, "mi sa": 8343, "553": 8344, "on 5": 8345, "3032": 8346, "mon 5": 8347, "si n": 8348, "asi n": 8349, "7082": 8350, "8222": 8351, "s max": 8352, "at d": 8353, "vat d": 8354, "at dp": 8355, "t dps": 8356, "s pl": 8357, "da 9": 8358, "a 99": 8359, "9128": 8360, "2875": 8361, "uda 9": 8362, "h bt": 8363, "ah bt": 8364, "h btm": 8365, "ce m": 8366, "ice m": 8367, "s ka": 8368, "is ka": 8369, "1830": 8370, "l st": 8371, "s lp": 8372, "il st": 8373, "l str": 8374, "s lpg": 8375, "746 ": 8376, "46 k": 8377, " 7492": 8378, "0860": 8379, "8602": 8380, "2119": 8381, "9802": 8382, "i 086": 8383, " 0860": 8384, "08602": 8385, "n 30": 8386, " 301": 8387, "1196": 8388, "1967": 8389, "9674": 8390, "11967": 8391, "e md": 8392, "e mdn": 8393, "nt p": 8394, "r 96": 8395, " 960": 8396, "mnt p": 8397, "nt pl": 8398, "pat b": 8399, "p cu": 8400, "np cu": 8401, "p cuc": 8402, "nt m": 8403, "t md": 8404, "nt md": 8405, "t mdn": 8406, "a lp": 8407, "a lpg": 8408, "l h": 8409, "p ne": 8410, "np ne": 8411, "p new": 8412, "era p": 8413, "833": 8414, " 847": 8415, "8476": 8416, "4764": 8417, "7983": 8418, " 8476": 8419, "fan m": 8420, "us s": 8421, "pus s": 8422, "us sm": 8423, "b 27": 8424, "1703": 8425, "db 27": 8426, "1703 ": 8427, "i md": 8428, "t ben": 8429, "i mdn": 8430, "853": 8431, "692": 8432, "f 85": 8433, " 853": 8434, "9253": 8435, "35 b": 8436, "rf 85": 8437, "8414": 8438, "om m": 8439, "m mk": 8440, "bom m": 8441, "m mks": 8442, "c ad": 8443, "dc ad": 8444, "c adi": 8445, "637": 8446, "740 ": 8447, "f 39": 8448, "7079": 8449, "15 b": 8450, "rf 39": 8451, "15 bc": 8452, "l n": 8453, "il n": 8454, "ra t": 8455, "ail n": 8456, "era t": 8457, "ra tn": 8458, "k w": 8459, "ik w": 8460, "k wa": 8461, "at 7": 8462, "t 78": 8463, "7843": 8464, "8433": 8465, "3089": 8466, "0891": 8467, "8918": 8468, "918 ": 8469, "dik w": 8470, "ik wa": 8471, "k wah": 8472, "8918 ": 8473, "0652": 8474, "870": 8475, "5887": 8476, "8878": 8477, "033 ": 8478, "k d": 8479, "8112": 8480, "1237": 8481, "3795": 8482, "7951": 8483, "81123": 8484, "np m": 8485, " np m": 8486, "k s": 8487, "k su": 8488, "k sur": 8489, "mi ok": 8490, "501 ": 8491, "384": 8492, "db 68": 8493, "i 28": 8494, " 280": 8495, "2804": 8496, "4999": 8497, "1 ha": 8498, "ri 28": 8499, " 2804": 8500, "1 had": 8501, "2409": 8502, "s z": 8503, "os z": 8504, "s za": 8505, "kos z": 8506, "os za": 8507, "s zah": 8508, "4146": 8509, "4146 ": 8510, "b 3 ": 8511, "db 3 ": 8512, "b 3 i": 8513, "l ma": 8514, "e bd": 8515, "il ma": 8516, "l mat": 8517, "re bd": 8518, "e bdg": 8519, "c lo": 8520, "c lot": 8521, "rt bk": 8522, "k c": 8523, "ek c": 8524, "k ci": 8525, "rek c": 8526, "ek ci": 8527, "k cim": 8528, " s ": 8529, "t 367": 8530, "c lau": 8531, "0896": 8532, "461": 8533, "618": 8534, "009": 8535, "8200": 8536, "i e": 8537, "ri 7": 8538, "0983": 8539, "716": 8540, "716 ": 8541, "7157": 8542, "bri 4": 8543, "7042": 8544, "2850": 8545, "8500": 8546, "059 ": 8547, "28500": 8548, "y 35": 8549, "7923": 8550, "3186": 8551, "ay 35": 8552, "858 ": 8553, "ja a": 8554, "a ad": 8555, "nja a": 8556, "ja ad": 8557, "a adi": 8558, "re bp": 8559, " 80": 8560, "7230": 8561, "r 14": 8562, "han c": 8563, "er 14": 8564, "t su": 8565, "n pb": 8566, "mt su": 8567, "t sun": 8568, "n pbr": 8569, "u l": 8570, "am pl": 8571, "255 ": 8572, "rt ci": 8573, "t cit": 8574, "f 74": 8575, "4916": 8576, "9160": 8577, "21 h": 8578, "rf 74": 8579, "g jk": 8580, "ung j": 8581, "ng jk": 8582, "g jkt": 8583, "y 1": 8584, "ay 1": 8585, " 114": 8586, "1144": 8587, "pay 1": 8588, " 1144": 8589, "2132": 8590, "3282": 8591, "ak o": 8592, "k or": 8593, "pak o": 8594, "ak or": 8595, "k ord": 8596, "to r": 8597, "sto r": 8598, "to ru": 8599, "o rum": 8600, "c st": 8601, "dc st": 8602, "c str": 8603, "ius b": 8604, "2 l": 8605, "1515": 8606, "92 l": 8607, "8712": 8608, "y 5": 8609, "5046": 8610, "4675": 8611, "4675 ": 8612, "9 t": 8613, "ca 0": 8614, "a 04": 8615, "0449": 8616, "809 ": 8617, "bca 0": 8618, "ni 84": 8619, "am pb": 8620, "s be": 8621, "vis b": 8622, "is be": 8623, "s beb": 8624, "i 15": 8625, " 151": 8626, "1665": 8627, "6650": 8628, "16650": 8629, "293": 8630, "9316": 8631, "b w": 8632, "db w": 8633, "b wa": 8634, " db w": 8635, "db wa": 8636, "b war": 8637, "724": 8638, "4172": 8639, "at 3": 8640, "8809": 8641, "8094": 8642, " 538": 8643, "577 ": 8644, "405": 8645, " 254": 8646, "9653": 8647, "6539": 8648, "0 ke": 8649, "9399": 8650, "051 ": 8651, "rek 2": 8652, " 2541": 8653, "65390": 8654, "0 ke ": 8655, "fan d": 8656, "n dpk": 8657, "307": 8658, "885": 8659, "4388": 8660, "aa": 8661, "aan": 8662, "i 26": 8663, "ak y": 8664, "nak y": 8665, "a 88": 8666, "029": 8667, "3996": 8668, "ra so": 8669, "b 05": 8670, "db 05": 8671, "o rut": 8672, "7620": 8673, "at 84": 8674, "7620 ": 8675, "mi li": 8676, "os r": 8677, "s ra": 8678, "kos r": 8679, "os ra": 8680, "s rat": 8681, "0328": 8682, "8273": 8683, "2733": 8684, "82733": 8685, "a bt": 8686, "a btm": 8687, " 48": 8688, "f 48": 8689, "9 da": 8690, "rf 48": 8691, "9 dan": 8692, "b 14": 8693, "1323": 8694, "k 5": 8695, "k 6": 8696, "ek 6": 8697, "2231": 8698, "rek 6": 8699, " 267": 8700, "3563": 8701, "6360": 8702, "601 ": 8703, "i do": 8704, "si do": 8705, "i dok": 8706, "i 96": 8707, "ri 96": 8708, "728": 8709, "9 q": 8710, "a 73": 8711, " 739": 8712, "3972": 8713, "9 qo": 8714, "ata 7": 8715, "a 739": 8716, "9 qor": 8717, "c bk": 8718, "ic bk": 8719, "c bks": 8720, "593": 8721, "r sa": 8722, " 317": 8723, "7255": 8724, "yr sa": 8725, "r sal": 8726, "s sp": 8727, "is sp": 8728, "s spo": 8729, "a 82": 8730, " 821": 8731, "2223": 8732, "312 ": 8733, "ake": 8734, "o 4": 8735, "4437": 8736, "731 ": 8737, "r 77": 8738, "3048": 8739, "er 77": 8740, "ja n": 8741, "a ni": 8742, "nja n": 8743, "ja ni": 8744, "a nik": 8745, "ia 0": 8746, "a 05": 8747, " 050": 8748, "3028": 8749, "824 ": 8750, "sia 0": 8751, "ia 05": 8752, "l t": 8753, " 770": 8754, "7089": 8755, "438 ": 8756, "b 770": 8757, "f 51": 8758, "1758": 8759, "8212": 8760, "rf 51": 8761, "i ol": 8762, "i oli": 8763, "l 2": 8764, "494": 8765, "al 2": 8766, "941 ": 8767, "nal 2": 8768, "i cr": 8769, "i crb": 8770, "h lp": 8771, "ah lp": 8772, "h lpg": 8773, "mi le": 8774, "019": 8775, " 001": 8776, "9365": 8777, "490": 8778, " 904": 8779, "opu": 8780, "upo": 8781, "pov": 8782, "topu": 8783, "opup": 8784, "upov": 8785, "povo": 8786, " topu": 8787, "topup": 8788, "upovo": 8789, "povo ": 8790, "h pb": 8791, "ah pb": 8792, "h pbr": 8793, "187": 8794, "1900": 8795, "9005": 8796, "0051": 8797, "0518": 8798, "187 ": 8799, "19005": 8800, "90051": 8801, "00518": 8802, "is g": 8803, "s gi": 8804, "vis g": 8805, "is gi": 8806, "s gia": 8807, "6687": 8808, "687 ": 8809, "6687 ": 8810, "k j": 8811, "k ju": 8812, "i 57": 8813, " 572": 8814, "5727": 8815, "9622": 8816, "k jul": 8817, "ri 57": 8818, "on ml": 8819, "9762": 8820, " 286": 8821, "t co": 8822, "mt co": 8823, "t con": 8824, "abe": 8825, "orab": 8826, "rabe": 8827, "abel": 8828, "lorab": 8829, "orabe": 8830, "rabel": 8831, "abela": 8832, " 663": 8833, " 147": 8834, "9252": 8835, "912 ": 8836, "7414": 8837, "1453": 8838, "4537": 8839, "14537": 8840, "178": 8841, "783": 8842, "b 63": 8843, "3498": 8844, "b 631": 8845, "os g": 8846, "s gu": 8847, "kos g": 8848, "os gu": 8849, "s gun": 8850, "9 n": 8851, "b 07": 8852, "8 j": 8853, "9639": 8854, "4080": 8855, "080 ": 8856, "p g": 8857, "np g": 8858, "p gi": 8859, " np g": 8860, "np gi": 8861, "p gia": 8862, "0598": 8863, "3 l": 8864, "8650": 8865, "6507": 8866, "7862": 8867, "23 l": 8868, "3 le": 8869, "86507": 8870, "23 le": 8871, "3 les": 8872, " 066": 8873, "ta pb": 8874, "3238": 8875, "8443": 8876, "ga n": 8877, "rga n": 8878, "ga nu": 8879, "r 22": 8880, "1746": 8881, "er 22": 8882, "at 4": 8883, "t 42": 8884, "at 42": 8885, "2 z": 8886, "f 65": 8887, "5943": 8888, "2 za": 8889, "rf 65": 8890, "2 zah": 8891, "216": 8892, "gan s": 8893, "s i": 8894, "os i": 8895, "kos i": 8896, "ne pl": 8897, "869 ": 8898, "n wa": 8899, "kan w": 8900, "an wa": 8901, "n war": 8902, "ee b": 8903, "rc ma": 8904, "c max": 8905, "fee b": 8906, "557": 8907, "t ol": 8908, "2666": 8909, "rt ol": 8910, "t oli": 8911, " 2666": 8912, "h r": 8913, "ah r": 8914, "yan b": 8915, "d bu": 8916, "m ml": 8917, "od bu": 8918, "m mlg": 8919, "d k": 8920, "od k": 8921, "d ka": 8922, "ood k": 8923, "od ka": 8924, "d kaf": 8925, "dc ma": 8926, "ee sm": 8927, "ine d": 8928, "1422": 8929, "6957": 8930, "396": 8931, "961": 8932, "679 ": 8933, "9679 ": 8934, "2823": 8935, "3649": 8936, "4979": 8937, "un ": 8938, "5363": 8939, "044 ": 8940, "44 k": 8941, "n ok": 8942, "044 k": 8943, "44 ki": 8944, "man o": 8945, "an ok": 8946, "n oki": 8947, "p ad": 8948, "np ad": 8949, "p adi": 8950, "fan b": 8951, "r 5": 8952, "6286": 8953, "26286": 8954, "0673": 8955, "2 br": 8956, "2 bri": 8957, "0663": 8958, "6311": 8959, "1190": 8960, "1 bu": 8961, "51 bu": 8962, "1 bud": 8963, "b 58": 8964, "3058": 8965, "db 58": 8966, "120": 8967, "8371": 8968, "371 ": 8969, "8371 ": 8970, "op l": 8971, "p lp": 8972, "hop l": 8973, "op lp": 8974, "p lpg": 8975, "rc ru": 8976, "ang b": 8977, "914": 8978, "2089": 8979, "3925": 8980, "ee m": 8981, "fee m": 8982, "e c": 8983, "e cr": 8984, "e crb": 8985, "2 n": 8986, "5282": 8987, "2 nu": 8988, "2 nur": 8989, "816": 8990, " 101": 8991, "1652": 8992, "526 ": 8993, "t 75": 8994, "893": 8995, " 251": 8996, "pi b": 8997, "opi b": 8998, "dc he": 8999, "290": 9000, "rt y": 9001, "3944": 9002, " rt y": 9003, "k br": 9004, "ek br": 9005, "k bri": 9006, "rc u": 9007, "prc u": 9008, "rc ur": 9009, "6053": 9010, "5360": 9011, "41605": 9012, "521 ": 9013, "p ru": 9014, "um s": 9015, "np ru": 9016, "p rum": 9017, "mum s": 9018, "um so": 9019, "la w": 9020, "ola w": 9021, "la wa": 9022, "ket s": 9023, "8805": 9024, "y 03": 9025, "ay 03": 9026, "b bo": 9027, "db bo": 9028, "b bob": 9029, "9842": 9030, "7501": 9031, " 411": 9032, "4113": 9033, "1397": 9034, "6633": 9035, "f 411": 9036, "am d": 9037, "jam d": 9038, "am dp": 9039, "ln 5": 9040, "1113": 9041, "pln 5": 9042, "ln 51": 9043, "2055": 9044, "it 9": 9045, "9994": 9046, "9941": 9047, "bit 9": 9048, "99941": 9049, "h 41": 9050, "750 ": 9051, "kah 4": 9052, "ah 41": 9053, "nan k": 9054, "ari 5": 9055, "r p": 9056, "yr p": 9057, "r pe": 9058, "8726": 9059, "byr p": 9060, "yr pe": 9061, "r pet": 9062, "i z": 9063, "i za": 9064, "i zak": 9065, "ea m": 9066, "tea m": 9067, "i ti": 9068, "ri ti": 9069, "i tik": 9070, "882": 9071, "2898": 9072, "986 ": 9073, "ri 97": 9074, "038": 9075, "8690": 9076, "wi b": 9077, "i bp": 9078, "awi b": 9079, "wi bp": 9080, "i bpn": 9081, "ken": 9082, "pi k": 9083, "i ke": 9084, " ken": 9085, "opi k": 9086, "pi ke": 9087, "i ken": 9088, " 709": 9089, "7099": 9090, "0544": 9091, "0999": 9092, "a me": 9093, "re bt": 9094, "wa p": 9095, "iwa p": 9096, "wa pl": 9097, " 917": 9098, "7651": 9099, "1010": 9100, "107 ": 9101, "a 4": 9102, "717": 9103, "2 t": 9104, "ta 4": 9105, "4671": 9106, "ata 4": 9107, "354": 9108, "on mk": 9109, "7184": 9110, "4140": 9111, "4140 ": 9112, "n 1": 9113, " 17": 9114, "i dps": 9115, "t as": 9116, "mt as": 9117, "t asu": 9118, "n 89": 9119, "ln 89": 9120, "072": 9121, "0725": 9122, "f 89": 9123, " 891": 9124, "8917": 9125, "9174": 9126, "rf 89": 9127, "f 891": 9128, " 8917": 9129, "996 ": 9130, "l f": 9131, "al f": 9132, "l fi": 9133, "ial f": 9134, "al fi": 9135, "l fit": 9136, "uda b": 9137, "8413": 9138, "0 pu": 9139, "0 put": 9140, " 969": 9141, "0505": 9142, "5054": 9143, "5455": 9144, "la y": 9145, "ola y": 9146, "734": 9147, "9734": 9148, "744": 9149, " 707": 9150, "406 ": 9151, "2339": 9152, "102": 9153, "1329": 9154, "761 ": 9155, "ma 7": 9156, "7525": 9157, "5255": 9158, "l cr": 9159, "bil c": 9160, "il cr": 9161, "l crb": 9162, "4786": 9163, "7196": 9164, " 136": 9165, "136 ": 9166, "bni 8": 9167, " 136 ": 9168, " 249": 9169, " 543": 9170, "4324": 9171, "3246": 9172, "2192": 9173, "2 me": 9174, "f 543": 9175, "43246": 9176, "2 meg": 9177, "ri u": 9178, "i ut": 9179, "tri u": 9180, "ri ut": 9181, "i uta": 9182, "dc pl": 9183, "ort b": 9184, "p smg": 9185, "n 65": 9186, "1550": 9187, "6033": 9188, "ic y": 9189, "c yk": 9190, "lic y": 9191, "ic yk": 9192, "c yk ": 9193, "785": 9194, "gn 6": 9195, "pgn 6": 9196, "la f": 9197, "ola f": 9198, "a faj": 9199, "h 31": 9200, "4337": 9201, "7398": 9202, "3980": 9203, "ah 31": 9204, "r bp": 9205, "0643": 9206, "9757": 9207, "7572": 9208, "9082": 9209, "3588": 9210, "m bt": 9211, "om bt": 9212, "m btm": 9213, "392 ": 9214, "2222": 9215, "2224": 9216, "22224": 9217, "670": 9218, "5503": 9219, "n 0": 9220, "259 ": 9221, "a su": 9222, "a sur": 9223, "9880": 9224, "bu p": 9225, "u pa": 9226, "a 78": 9227, " 781": 9228, "1182": 9229, "1823": 9230, "3233": 9231, "ibu p": 9232, "bu pa": 9233, "u pan": 9234, "a 781": 9235, "11823": 9236, "5585": 9237, "5855": 9238, "0 s": 9239, "mb 4": 9240, "0 sa": 9241, "imb 4": 9242, "0 sar": 9243, " 998": 9244, "9793": 9245, "7934": 9246, "9348": 9247, "920": 9248, "0221": 9249, "2215": 9250, "1574": 9251, "2056": 9252, "ga d": 9253, "rga d": 9254, "s 2": 9255, "is 2": 9256, "2454": 9257, "xis 2": 9258, " 221": 9259, "493 ": 9260, "110": 9261, "626": 9262, "m md": 9263, "m mdn": 9264, "p bt": 9265, "p btm": 9266, "678": 9267, "0 ki": 9268, "0 kir": 9269, "n ani": 9270, "bat l": 9271, "g pl": 9272, "ng pl": 9273, "2630": 9274, "rt ah": 9275, "t ahm": 9276, "mp m": 9277, "smp m": 9278, "mp mk": 9279, "f 76": 9280, " 765": 9281, "7657": 9282, "rf 76": 9283, "ca 76": 9284, "rt j": 9285, "366": 9286, "7 ya": 9287, "7 yan": 9288, "q 6": 9289, "aq 6": 9290, " 666": 9291, "234 ": 9292, "faq 6": 9293, "702": 9294, "217": 9295, "915": 9296, "0 o": 9297, " 462": 9298, "1791": 9299, "0 ol": 9300, "db 46": 9301, "0 oli": 9302, "aga r": 9303, "ga ru": 9304, "1599": 9305, "31599": 9306, "98660": 9307, "b max": 9308, "4350": 9309, "3500": 9310, "500 ": 9311, "43500": 9312, "sa bp": 9313, "b 64": 9314, "372 ": 9315, "db 64": 9316, "b ka": 9317, "db ka": 9318, "dd": 9319, "oc": 9320, "goo": 9321, "odd": 9322, "ddo": 9323, "doc": 9324, "oct": 9325, "cto": 9326, "or ": 9327, " goo": 9328, "good": 9329, "oodd": 9330, "oddo": 9331, "ddoc": 9332, "doct": 9333, "octo": 9334, "ctor": 9335, "tor ": 9336, " good": 9337, "goodd": 9338, "ooddo": 9339, "oddoc": 9340, "ddoct": 9341, "docto": 9342, "octor": 9343, "ctor ": 9344, "niv": 9345, "ive": 9346, "pp u": 9347, "p un": 9348, " uni": 9349, "univ": 9350, "nive": 9351, "iver": 9352, "spp u": 9353, "pp un": 9354, "p uni": 9355, " univ": 9356, "unive": 9357, "niver": 9358, "ivers": 9359, "t aq": 9360, "mt aq": 9361, "t aqi": 9362, "si 0": 9363, "7773": 9364, "3613": 9365, "6131": 9366, "bsi 0": 9367, "36131": 9368, "767": 9369, "767 ": 9370, "ma 1": 9371, "a 10": 9372, "1018": 9373, "1809": 9374, "ama 1": 9375, "kah 7": 9376, "1869": 9377, "fer 1": 9378, " 252 ": 9379, "pat c": 9380, "np se": 9381, "970": 9382, "p lau": 9383, "o be": 9384, "to be": 9385, "o beb": 9386, "0686": 9387, "742": 9388, "4821": 9389, "gd": 9390, "ngd": 9391, "gdb": 9392, "000": 9393, "ingd": 9394, "ngdb": 9395, "gdb ": 9396, "kingd": 9397, "ingdb": 9398, "ngdb ": 9399, "gdb g": 9400, "938": 9401, "8193": 9402, "rt f": 9403, " rt f": 9404, "5768": 9405, "7689": 9406, "er 6": 9407, "fer 6": 9408, "t lp": 9409, "t lpg": 9410, "2280": 9411, "8023": 9412, "p y": 9413, "r 4": 9414, "er 4": 9415, "0286": 9416, "2861": 9417, "516 ": 9418, "073": 9419, "7908": 9420, "0806": 9421, "mi p": 9422, "ami p": 9423, "i pa": 9424, "ra sm": 9425, "rt w": 9426, " rt w": 9427, "rt wa": 9428, " 836": 9429, "8360": 9430, "3017": 9431, " 8360": 9432, "599 ": 9433, " 379": 9434, "b aq": 9435, "db aq": 9436, "b aqi": 9437, "ik b": 9438, "p 6": 9439, "mp 6": 9440, "429 ": 9441, "smp 6": 9442, "789": 9443, "ta 8": 9444, "2253": 9445, "2539": 9446, "789 ": 9447, "22539": 9448, "564": 9449, "yr a": 9450, "r as": 9451, "6301": 9452, "1564": 9453, "byr a": 9454, "yr as": 9455, "r asu": 9456, "c mat": 9457, "zta b": 9458, "5505": 9459, "512": 9460, "i jk": 9461, "i jkt": 9462, "f 83": 9463, "rf 83": 9464, "a 29": 9465, "mp 1": 9466, "smp 1": 9467, "ri l": 9468, "tri l": 9469, "ri li": 9470, "3214": 9471, "tri r": 9472, "v l": 9473, "tv l": 9474, "v lp": 9475, "ktv l": 9476, "tv lp": 9477, "v lpg": 9478, "794": 9479, "ort p": 9480, "mt pl": 9481, "t pla": 9482, "3986": 9483, "4155": 9484, "ari 4": 9485, "y e": 9486, "py e": 9487, "y ex": 9488, "apy e": 9489, "py ex": 9490, "y exp": 9491, "n tn": 9492, "n tng": 9493, "ta bg": 9494, "1449": 9495, "uda s": 9496, "ln 4": 9497, "n 41": 9498, "pln 4": 9499, "vat b": 9500, "i 29": 9501, " 299": 9502, "2997": 9503, "7297": 9504, "ri 29": 9505, " 2997": 9506, "t am": 9507, "mt am": 9508, "t ama": 9509, "r 25": 9510, "0457": 9511, "er 25": 9512, "7649": 9513, "9058": 9514, "i 44": 9515, "f 53": 9516, "1806": 9517, "rf 53": 9518, "ay 7": 9519, "pay 7": 9520, "6 g": 9521, "r n": 9522, "084": 9523, "yr n": 9524, "r no": 9525, "at 0": 9526, "0842": 9527, "byr n": 9528, "yr no": 9529, "r not": 9530, "mt pu": 9531, "mas s": 9532, "6890": 9533, "wat p": 9534, " 235": 9535, "2775": 9536, " 814": 9537, "4205": 9538, "b 814": 9539, "dbs": 9540, " dbs": 9541, "g dbs": 9542, "7314": 9543, "i to": 9544, "i ton": 9545, " sat": 9546, " sate": 9547, "3658": 9548, "5854": 9549, "n ah": 9550, "an ah": 9551, "n ahm": 9552, "t cu": 9553, "mt cu": 9554, "t cuc": 9555, " 899": 9556, "8991": 9557, "mb 8": 9558, "imb 8": 9559, "mb 81": 9560, "i 11": 9561, "ri 11": 9562, "ne pb": 9563, "5 s": 9564, "5 sa": 9565, "5 sar": 9566, "6669": 9567, " 415": 9568, "1604": 9569, "k a": 9570, "ak a": 9571, "nak a": 9572, "g tn": 9573, "ng tn": 9574, "g tng": 9575, "y bp": 9576, "759 ": 9577, "py bp": 9578, "y bpj": 9579, "185 ": 9580, "813": 9581, "9344": 9582, "4813": 9583, "b 934": 9584, "603 ": 9585, "0818": 9586, "on d": 9587, "on dp": 9588, "s mi": 9589, " mit": 9590, "mitr": 9591, "rs mi": 9592, "s mit": 9593, " mitr": 9594, "mitra": 9595, "ik v": 9596, "dik v": 9597, "2205": 9598, "er s": 9599, "ter s": 9600, "an 2": 9601, "f 94": 9602, "rf 94": 9603, "7 f": 9604, "7 fa": 9605, "7 faj": 9606, " i ": 9607, "t 57": 9608, "at 57": 9609, " 466": 9610, "4824": 9611, "34824": 9612, "9977": 9613, "c ben": 9614, "c 0": 9615, "035": 9616, "ac 0": 9617, " 035": 9618, " ac 0": 9619, "i q": 9620, "i qo": 9621, "i qor": 9622, "5417": 9623, "an ml": 9624, "6493": 9625, "i 36": 9626, "3635": 9627, "r ba": 9628, "yr ba": 9629, "r bar": 9630, "590": 9631, "i 64": 9632, "590 ": 9633, "ic j": 9634, "lic j": 9635, "ic jk": 9636, "0603": 9637, "338 ": 9638, "pus b": 9639, "3793": 9640, "ry b": 9641, "dry b": 9642, "6743": 9643, "519": 9644, "922": 9645, "1922": 9646, "ri 25": 9647, " 262": 9648, " 2628": 9649, "si 9": 9650, "bsi 9": 9651, "k ka": 9652, "559 ": 9653, "ik ka": 9654, "k kar": 9655, "9124": 9656, "f 139": 9657, "8 ma": 9658, "8 man": 9659, "rc ra": 9660, "ang t": 9661, "il p": 9662, "l pl": 9663, "il pl": 9664, " 963": 9665, "748 ": 9666, "9536": 9667, "19536": 9668, "091": 9669, "78 ": 9670, "1849": 9671, "50 k": 9672, "18495": 9673, "n 23": 9674, "e 3": 9675, "ne 3": 9676, "ine 3": 9677, " 401": 9678, " 4014": 9679, "848 ": 9680, "495 ": 9681, "o tn": 9682, "ito t": 9683, "to tn": 9684, "o tng": 9685, "0213": 9686, "ra pl": 9687, "4165": 9688, "421 ": 9689, "s yk": 9690, "s yk ": 9691, " 314": 9692, "1485": 9693, "31485": 9694, "549 ": 9695, "t 82": 9696, "si 8": 9697, "bsi 8": 9698, "gul": 9699, "ulu": 9700, "gulu": 9701, " rt p": 9702, "o k": 9703, "to k": 9704, "sto k": 9705, "8 h": 9706, "4625": 9707, "6257": 9708, "1452": 9709, "o m": 9710, "to m": 9711, "o ml": 9712, "ito m": 9713, "to ml": 9714, "o mlg": 9715, "to p": 9716, "135": 9717, "394 ": 9718, "f 30": 9719, "rf 30": 9720, "9772": 9721, "ne l": 9722, "one l": 9723, "ne lp": 9724, "y ah": 9725, "py ah": 9726, "y aha": 9727, "a 52": 9728, "8888": 9729, "da d": 9730, "nda d": 9731, "da dp": 9732, "9514": 9733, "514 ": 9734, "0524": 9735, "524 ": 9736, "20524": 9737, "0524 ": 9738, "ket p": 9739, "641": 9740, "218": 9741, "1 u": 9742, "1 ut": 9743, "1 uta": 9744, " 680": 9745, "6801": 9746, "1220": 9747, " 6801": 9748, "3431": 9749, "4312": 9750, " 9343": 9751, "93431": 9752, "34312": 9753, "43122": 9754, "a q": 9755, "la q": 9756, "a qo": 9757, "ola q": 9758, "la qo": 9759, "a qor": 9760, "7 z": 9761, "a 15": 9762, " 155": 9763, "1554": 9764, "5544": 9765, "5444": 9766, "4446": 9767, "4647": 9768, "6477": 9769, "477 ": 9770, "77 z": 9771, "7 za": 9772, "ca 15": 9773, "a 155": 9774, " 1554": 9775, "15544": 9776, "55444": 9777, "54446": 9778, "44464": 9779, "44647": 9780, "46477": 9781, "6477 ": 9782, "477 z": 9783, "77 za": 9784, "7 zah": 9785, "ekr": 9786, "kri": 9787, "rid": 9788, "ide": 9789, "de ": 9790, "jekr": 9791, "ekri": 9792, "krid": 9793, "ride": 9794, "ide ": 9795, "ojekr": 9796, "jekri": 9797, "ekrid": 9798, "kride": 9799, "ride ": 9800, "024": 9801, " 843": 9802, "8434": 9803, "4340": 9804, "4024": 9805, "0242": 9806, "2424": 9807, "4245": 9808, "45 p": 9809, "5 pe": 9810, " 8434": 9811, "84340": 9812, "43402": 9813, "34024": 9814, "40242": 9815, "02424": 9816, "24245": 9817, "4245 ": 9818, "245 p": 9819, "45 pe": 9820, "5 per": 9821, "ak 1": 9822, "k 15": 9823, " 159": 9824, "pak 1": 9825, "ak 15": 9826, "k 159": 9827, " 159 ": 9828, "h i": 9829, "ah i": 9830, "h ir": 9831, "yah i": 9832, "ah ir": 9833, "h ira": 9834, "q jk": 9835, "aq jk": 9836, "q jkt": 9837, "ea pb": 9838, "mi y": 9839, "i yu": 9840, "ami y": 9841, "mi yu": 9842, "i yus": 9843, "om d": 9844, "bom d": 9845, "om dp": 9846, "y so": 9847, "ry so": 9848, "y sol": 9849, "ha so": 9850, "864": 9851, "t 62": 9852, "2144": 9853, "4458": 9854, "4588": 9855, "5886": 9856, "8864": 9857, "8646": 9858, "6462": 9859, "at 62": 9860, "t 621": 9861, " 6214": 9862, "62144": 9863, "21445": 9864, "14458": 9865, "44588": 9866, "45886": 9867, "58864": 9868, "88646": 9869, "86462": 9870, "6462 ": 9871, "t 65": 9872, "5226": 9873, "2260": 9874, "2603": 9875, "6032": 9876, "032 ": 9877, "at 65": 9878, "t 652": 9879, " 6522": 9880, "65226": 9881, "52260": 9882, "22603": 9883, "26032": 9884, "6032 ": 9885, "5 i": 9886, "n 35": 9887, " 356": 9888, "5675": 9889, "6754": 9890, "7541": 9891, "5414": 9892, "425 ": 9893, "25 i": 9894, "5 in": 9895, "mon 3": 9896, "on 35": 9897, "n 356": 9898, " 3567": 9899, "35675": 9900, "56754": 9901, "67541": 9902, "75414": 9903, "54142": 9904, "41425": 9905, "1425 ": 9906, "425 i": 9907, "25 in": 9908, "5 ind": 9909, "3167": 9910, "1673": 9911, "6736": 9912, "7363": 9913, "3638": 9914, "6382": 9915, "3828": 9916, "r 316": 9917, " 3167": 9918, "31673": 9919, "16736": 9920, "67363": 9921, "73638": 9922, "36382": 9923, "63828": 9924, "3828 ": 9925, "448": 9926, "it 6": 9927, "t 60": 9928, " 604": 9929, "0448": 9930, "4484": 9931, "4844": 9932, "8444": 9933, "bit 6": 9934, "it 60": 9935, "t 604": 9936, " 6044": 9937, "60448": 9938, "04484": 9939, "44844": 9940, "48444": 9941, "8444 ": 9942, "b pl": 9943, "db pl": 9944, "b pln": 9945, "har ": 9946, "ahar ": 9947, "4193": 9948, "1935": 9949, "58 b": 9950, "8 bs": 9951, "f 419": 9952, " 4193": 9953, "41935": 9954, "19358": 9955, "358 b": 9956, "58 bs": 9957, "8 bsi": 9958, "b 99": 9959, " 997": 9960, "9730": 9961, "3041": 9962, "4162": 9963, "db 99": 9964, "b 997": 9965, " 9973": 9966, "99730": 9967, "97304": 9968, "73041": 9969, "30416": 9970, "04162": 9971, "41622": 9972, "0 z": 9973, " 819": 9974, "8195": 9975, "1958": 9976, "9589": 9977, "5897": 9978, "8973": 9979, "7360": 9980, "60 z": 9981, "0 za": 9982, "b 819": 9983, " 8195": 9984, "81958": 9985, "19589": 9986, "95897": 9987, "58973": 9988, "89736": 9989, "97360": 9990, "7360 ": 9991, "360 z": 9992, "60 za": 9993, "0 zah": 9994, "ila r": 9995, "la ru": 9996, "re 8": 9997, "e 89": 9998, " 892": 9999, "892 ": 10000, "ore 8": 10001, "re 89": 10002, "e 892": 10003, " 892 ": 10004, "k ku": 10005, " 883": 10006, "3650": 10007, "6500": 10008, "5001": 10009, "0117": 10010, "117 ": 10011, "ik ku": 10012, "k kur": 10013, "ri 88": 10014, "i 883": 10015, " 8836": 10016, "88365": 10017, "83650": 10018, "36500": 10019, "65001": 10020, "50011": 10021, "00117": 10022, "0117 ": 10023, " k ": 10024, "g ci": 10025, "n k ": 10026, "ng ci": 10027, "g cic": 10028, "lan k": 10029, "an k ": 10030, "t9": 10031, "at9": 10032, "t93": 10033, "mat9": 10034, "at93": 10035, "t932": 10036, "9321": 10037, "3210": 10038, "2101": 10039, "101 ": 10040, "umat9": 10041, "mat93": 10042, "at932": 10043, "t9321": 10044, "93210": 10045, "32101": 10046, "2101 ": 10047, "pat j": 10048, "8607": 10049, "6077": 10050, "772 ": 10051, "ri 86": 10052, "i 860": 10053, " 8607": 10054, "86077": 10055, "60772": 10056, "0772 ": 10057, "ga c": 10058, "a ci": 10059, "rga c": 10060, "ga ci": 10061, "a cit": 10062, "h 36": 10063, " 368": 10064, "3687": 10065, "ah 36": 10066, "h 368": 10067, " 3687": 10068, "36879": 10069, "68797": 10070, "8797 ": 10071, "t ra": 10072, "mt ra": 10073, "t ram": 10074, "ana s": 10075, "na sb": 10076, "olam": 10077, "lame": 10078, "ameg": 10079, "holam": 10080, "olame": 10081, "lameg": 10082, "amega": 10083, "bet b": 10084, "t bpj": 10085, "747": 10086, "ry 7": 10087, "y 74": 10088, " 747": 10089, "7478": 10090, "4787": 10091, "7877": 10092, "7769": 10093, "769 ": 10094, "dry 7": 10095, "ry 74": 10096, "y 747": 10097, " 7478": 10098, "74787": 10099, "47877": 10100, "78776": 10101, "87769": 10102, "7769 ": 10103, "5 d": 10104, "f 04": 10105, "0475": 10106, "5097": 10107, "9773": 10108, "7735": 10109, "735 ": 10110, "35 d": 10111, "5 da": 10112, "rf 04": 10113, "f 047": 10114, " 0475": 10115, "04750": 10116, "47509": 10117, "75097": 10118, "50977": 10119, "09773": 10120, "97735": 10121, "7735 ": 10122, "735 d": 10123, "35 da": 10124, "5 dan": 10125, "ha 2": 10126, "a 23": 10127, " 238": 10128, "2389": 10129, "8980": 10130, "9803": 10131, "031 ": 10132, "aha 2": 10133, "ha 23": 10134, "a 238": 10135, " 2389": 10136, "23898": 10137, "38980": 10138, "89803": 10139, "98031": 10140, "8031 ": 10141, "v sm": 10142, "tv sm": 10143, "v smg": 10144, "003": 10145, " 900": 10146, "9003": 10147, "0039": 10148, "0398": 10149, "3985": 10150, "9855": 10151, "8554": 10152, "5542": 10153, "42 c": 10154, "f 900": 10155, " 9003": 10156, "90039": 10157, "00398": 10158, "03985": 10159, "39855": 10160, "98554": 10161, "85542": 10162, "5542 ": 10163, "542 c": 10164, "42 ci": 10165, "l ve": 10166, "al ve": 10167, "l ver": 10168, "y m": 10169, "ry m": 10170, "y ml": 10171, "dry m": 10172, "ry ml": 10173, "y mlg": 10174, "m bp": 10175, "om bp": 10176, "m bpn": 10177, "al o": 10178, "l ol": 10179, "ial o": 10180, "al ol": 10181, "l oli": 10182, "359": 10183, "8 u": 10184, "f 35": 10185, " 359": 10186, "3592": 10187, "5927": 10188, "9277": 10189, "7711": 10190, "7114": 10191, "1148": 10192, "148 ": 10193, "48 u": 10194, "8 um": 10195, "rf 35": 10196, "f 359": 10197, " 3592": 10198, "35927": 10199, "59277": 10200, "92771": 10201, "27711": 10202, "77114": 10203, "71148": 10204, "1148 ": 10205, "148 u": 10206, "48 um": 10207, "8 umi": 10208, "t 23": 10209, " 237": 10210, "3790": 10211, "at 23": 10212, "t 237": 10213, " 2379": 10214, "23790": 10215, "37904": 10216, "t 3 ": 10217, "a 50": 10218, " 503": 10219, "3364": 10220, "3644": 10221, "mnt 3": 10222, "nt 3 ": 10223, "t 3 i": 10224, "ia 50": 10225, "a 503": 10226, " 5033": 10227, "03364": 10228, "33644": 10229, "36443": 10230, "64434": 10231, "44347": 10232, "34710": 10233, "r 90": 10234, " 909": 10235, "9099": 10236, "0994": 10237, "9466": 10238, "4668": 10239, "6685": 10240, "857 ": 10241, "er 90": 10242, "r 909": 10243, " 9099": 10244, "90994": 10245, "09946": 10246, "99466": 10247, "94668": 10248, "46685": 10249, "66857": 10250, "6857 ": 10251, "e 9": 10252, "ce 9": 10253, "e 97": 10254, " 979": 10255, "ice 9": 10256, "ce 97": 10257, "e 979": 10258, " 979 ": 10259, "619": 10260, "3343": 10261, "3436": 10262, "4369": 10263, "3690": 10264, "6906": 10265, "9061": 10266, "0619": 10267, "619 ": 10268, " 3343": 10269, "33436": 10270, "34369": 10271, "43690": 10272, "36906": 10273, "69061": 10274, "90619": 10275, "0619 ": 10276, " ban ": 10277, "ta md": 10278, " 248": 10279, "4898": 10280, "9892": 10281, "8924": 10282, "tk 24": 10283, "k 248": 10284, " 2489": 10285, "24898": 10286, "48989": 10287, "89892": 10288, "98924": 10289, "8924 ": 10290, "b 08": 10291, " 082": 10292, "0825": 10293, "8259": 10294, "2594": 10295, "5949": 10296, "9495": 10297, "4959": 10298, "9597": 10299, "597 ": 10300, "97 k": 10301, "db 08": 10302, "b 082": 10303, " 0825": 10304, "08259": 10305, "82594": 10306, "25949": 10307, "59495": 10308, "94959": 10309, "49597": 10310, "9597 ": 10311, "597 k": 10312, "97 ki": 10313, "re y": 10314, "e yk": 10315, "ja ma": 10316, "a mat": 10317, "ore y": 10318, "re yk": 10319, "e yk ": 10320, "f 82": 10321, "2331": 10322, "3310": 10323, "1017": 10324, "0171": 10325, "1715": 10326, "715 ": 10327, "rf 82": 10328, "f 823": 10329, "82331": 10330, "23310": 10331, "33101": 10332, "31017": 10333, "10171": 10334, "01715": 10335, "1715 ": 10336, "na md": 10337, "ek p": 10338, "k pe": 10339, "rek p": 10340, "ek pe": 10341, "k per": 10342, "c mk": 10343, "ic mk": 10344, "c mks": 10345, "y se": 10346, "py se": 10347, "y seh": 10348, "u e": 10349, "bu e": 10350, "u en": 10351, "ti 2": 10352, " 250": 10353, "2504": 10354, "5044": 10355, "0447": 10356, "4479": 10357, "4799": 10358, "7997": 10359, "975 ": 10360, "ibu e": 10361, "bu en": 10362, "u end": 10363, "nti 2": 10364, "ti 25": 10365, "i 250": 10366, " 2504": 10367, "25044": 10368, "50447": 10369, "04479": 10370, "44799": 10371, "47997": 10372, "79975": 10373, "9975 ": 10374, "na bk": 10375, "y x": 10376, "py x": 10377, "y xl": 10378, "r 86": 10379, "8658": 10380, "6588": 10381, "5883": 10382, "883 ": 10383, "ipy x": 10384, "py xl": 10385, "y xl ": 10386, "ar 86": 10387, "r 865": 10388, " 8658": 10389, "86588": 10390, "65883": 10391, "5883 ": 10392, " 926": 10393, "9265": 10394, "2658": 10395, "6584": 10396, "5842": 10397, "f 926": 10398, " 9265": 10399, "92658": 10400, "26584": 10401, "65842": 10402, "58420": 10403, "84209": 10404, "42099": 10405, "2099 ": 10406, "f 84": 10407, " 845": 10408, "8450": 10409, "4504": 10410, "047 ": 10411, "47 d": 10412, "rf 84": 10413, "f 845": 10414, " 8450": 10415, "84504": 10416, "45047": 10417, "5047 ": 10418, "047 d": 10419, "47 da": 10420, "dc me": 10421, "8798": 10422, "7987": 10423, "8765": 10424, "bri 8": 10425, " 8798": 10426, "87987": 10427, "79876": 10428, "98765": 10429, "87658": 10430, "76585": 10431, "65852": 10432, "5852 ": 10433, "lon l": 10434, "l g": 10435, "il g": 10436, "l gi": 10437, "ail g": 10438, "il gi": 10439, "l gia": 10440, "dct": 10441, "ctr": 10442, "edct": 10443, "dctr": 10444, "ctra": 10445, " edct": 10446, "edctr": 10447, "dctra": 10448, "ctran": 10449, "kol ": 10450, "ekol ": 10451, "8470": 10452, "7037": 10453, "0377": 10454, "3778": 10455, "7780": 10456, "780 ": 10457, "80 l": 10458, "mb 68": 10459, " 6847": 10460, "68470": 10461, "84703": 10462, "47037": 10463, "70377": 10464, "03778": 10465, "37780": 10466, "7780 ": 10467, "780 l": 10468, "80 le": 10469, "g cb": 10470, "ng cb": 10471, "g cbn": 10472, "g bd": 10473, "ung b": 10474, "ng bd": 10475, "g bdg": 10476, "r 00": 10477, " 008": 10478, "0087": 10479, "0873": 10480, "730 ": 10481, "er 00": 10482, "r 008": 10483, " 0087": 10484, "00873": 10485, "08730": 10486, "8730 ": 10487, "616": 10488, "ma 3": 10489, "a 34": 10490, " 343": 10491, "3435": 10492, "4357": 10493, "3576": 10494, "5761": 10495, "7616": 10496, "6168": 10497, "1683": 10498, "sma 3": 10499, "ma 34": 10500, "a 343": 10501, " 3435": 10502, "34357": 10503, "43576": 10504, "35761": 10505, "57616": 10506, "76168": 10507, "61683": 10508, "1683 ": 10509, "t 32": 10510, "8721": 10511, "7213": 10512, "2133": 10513, "133 ": 10514, "it 32": 10515, "t 328": 10516, "28721": 10517, "87213": 10518, "72133": 10519, "2133 ": 10520, "b 36": 10521, " 361": 10522, "3615": 10523, "6153": 10524, "5365": 10525, "3652": 10526, "6529": 10527, "91 k": 10528, "n de": 10529, "db 36": 10530, "b 361": 10531, " 3615": 10532, "36153": 10533, "61536": 10534, "15365": 10535, "53652": 10536, "36529": 10537, "65291": 10538, "5291 ": 10539, "291 k": 10540, "91 ki": 10541, "man d": 10542, "an de": 10543, "n dew": 10544, "q 8": 10545, "964": 10546, "aq 8": 10547, "q 87": 10548, "8732": 10549, "7329": 10550, "3296": 10551, "2964": 10552, "9649": 10553, "6496": 10554, "faq 8": 10555, "aq 87": 10556, "q 873": 10557, " 8732": 10558, "87329": 10559, "73296": 10560, "32964": 10561, "29649": 10562, "96496": 10563, "64962": 10564, "4962 ": 10565, "t 67": 10566, " 677": 10567, "7772": 10568, "7725": 10569, "725 ": 10570, "mat 6": 10571, "at 67": 10572, "t 677": 10573, " 6777": 10574, "67772": 10575, "77725": 10576, "7725 ": 10577, "h li": 10578, "yah l": 10579, "ah li": 10580, "h lin": 10581, "s 9": 10582, "js 9": 10583, "s 94": 10584, "3021": 10585, "1153": 10586, "153 ": 10587, "ran i": 10588, "pjs 9": 10589, "js 94": 10590, "s 943": 10591, " 9430": 10592, "43021": 10593, "30211": 10594, "02115": 10595, "21153": 10596, "1153 ": 10597, "ik e": 10598, "k ek": 10599, "yo 6": 10600, " 633": 10601, "6339": 10602, "3392": 10603, "3923": 10604, "9238": 10605, "2386": 10606, "3868": 10607, "8689": 10608, "dik e": 10609, "ik ek": 10610, "k eko": 10611, "tyo 6": 10612, "yo 63": 10613, "o 633": 10614, " 6339": 10615, "63392": 10616, "33923": 10617, "39238": 10618, "92386": 10619, "23868": 10620, "38689": 10621, "8689 ": 10622, "7493": 10623, "4930": 10624, "6309": 10625, "3094": 10626, "94 c": 10627, " 7493": 10628, "74930": 10629, "49306": 10630, "93063": 10631, "30630": 10632, "06309": 10633, "63094": 10634, "3094 ": 10635, "094 c": 10636, "94 ca": 10637, " 721": 10638, "7211": 10639, "1156": 10640, "1562": 10641, "5625": 10642, "6252": 10643, "2525": 10644, "25 c": 10645, "f 721": 10646, " 7211": 10647, "72115": 10648, "21156": 10649, "11562": 10650, "15625": 10651, "56252": 10652, "62525": 10653, "2525 ": 10654, "525 c": 10655, "25 ci": 10656, "2 y": 10657, " r ": 10658, " 745": 10659, "7450": 10660, "4507": 10661, "5071": 10662, "7104": 10663, "0492": 10664, "92 y": 10665, "2 yu": 10666, "f r ": 10667, "b 745": 10668, " 7450": 10669, "74507": 10670, "45071": 10671, "50710": 10672, "07104": 10673, "71049": 10674, "10492": 10675, "0492 ": 10676, "492 y": 10677, "92 yu": 10678, "2 yus": 10679, "uf r ": 10680, "al su": 10681, "l sur": 10682, "k bn": 10683, "ek bn": 10684, "k bni": 10685, "ga y": 10686, "rga y": 10687, "ga ya": 10688, "6 b": 10689, " 673": 10690, "6730": 10691, "7306": 10692, "0683": 10693, "8377": 10694, "3776": 10695, "776 ": 10696, "76 b": 10697, "6 bn": 10698, "f 673": 10699, " 6730": 10700, "67306": 10701, "73068": 10702, "30683": 10703, "06837": 10704, "68377": 10705, "83776": 10706, "3776 ": 10707, "776 b": 10708, "76 bn": 10709, "6 bni": 10710, "c 28": 10711, "8962": 10712, "9624": 10713, "6241": 10714, "2414": 10715, "414 ": 10716, "ac 28": 10717, "c 289": 10718, "28962": 10719, "89624": 10720, "96241": 10721, "62414": 10722, "2414 ": 10723, "s ml": 10724, "mt ka": 10725, "t kan": 10726, "pus m": 10727, "us ml": 10728, "s mlg": 10729, "mt u": 10730, "t ua": 10731, "pmt u": 10732, "mt ua": 10733, "t uan": 10734, "ln 9": 10735, "n 94": 10736, "4360": 10737, "pln 9": 10738, "ln 94": 10739, "n 943": 10740, "94360": 10741, "43605": 10742, "3605 ": 10743, "mi r": 10744, "ami r": 10745, "mi ra": 10746, "i rat": 10747, "d g": 10748, "od g": 10749, "d ge": 10750, "u mk": 10751, "ood g": 10752, "od ge": 10753, "d gep": 10754, "su mk": 10755, "u mks": 10756, "m 0": 10757, "013": 10758, "um 0": 10759, "m 01": 10760, " 013": 10761, "0132": 10762, "1326": 10763, "3260": 10764, "2604": 10765, "6048": 10766, "0481": 10767, "810 ": 10768, "rum 0": 10769, "um 01": 10770, "m 013": 10771, " 0132": 10772, "01326": 10773, "13260": 10774, "32604": 10775, "26048": 10776, "60481": 10777, "04810": 10778, "4810 ": 10779, "k 08": 10780, "8560": 10781, "5605": 10782, "tk 08": 10783, "k 085": 10784, "08560": 10785, "85605": 10786, "5605 ": 10787, "rc bu": 10788, "8569": 10789, "5693": 10790, "6936": 10791, "9363": 10792, "3632": 10793, "6324": 10794, "3243": 10795, "2436": 10796, "436 ": 10797, "i 085": 10798, "08569": 10799, "85693": 10800, "56936": 10801, "69363": 10802, "93632": 10803, "36324": 10804, "63243": 10805, "32436": 10806, "2436 ": 10807, "f 08": 10808, "0863": 10809, "8634": 10810, "6344": 10811, "3449": 10812, "9854": 10813, "854 ": 10814, "54 b": 10815, "4 bs": 10816, "rf 08": 10817, "f 086": 10818, " 0863": 10819, "08634": 10820, "86344": 10821, "63449": 10822, "34498": 10823, "44985": 10824, "49854": 10825, "9854 ": 10826, "854 b": 10827, "54 bs": 10828, "4 bsi": 10829, "ac p": 10830, "t ser": 10831, " ac p": 10832, "ac pl": 10833, "c plb": 10834, "1 p": 10835, "5844": 10836, "8445": 10837, "4451": 10838, "451 ": 10839, "51 p": 10840, "1 pe": 10841, "f 584": 10842, " 5844": 10843, "58445": 10844, "84451": 10845, "4451 ": 10846, "451 p": 10847, "51 pe": 10848, "1 per": 10849, "-mon ": 10850, "et o": 10851, "t ov": 10852, "let o": 10853, "et ov": 10854, "t ovo": 10855, "rt bp": 10856, "3345": 10857, "3454": 10858, "4549": 10859, "18 b": 10860, "8 br": 10861, " 3345": 10862, "33454": 10863, "34549": 10864, "45498": 10865, "54987": 10866, "98718": 10867, "718 b": 10868, "18 br": 10869, "8 bri": 10870, " 694": 10871, "6942": 10872, "91 b": 10873, "f 694": 10874, " 6942": 10875, "69429": 10876, "94291": 10877, "291 b": 10878, "91 bn": 10879, " 062": 10880, "0628": 10881, "2895": 10882, "8954": 10883, "9546": 10884, "5464": 10885, "4645": 10886, "645 ": 10887, "45 k": 10888, "n ha": 10889, "b 062": 10890, " 0628": 10891, "06289": 10892, "62895": 10893, "28954": 10894, "89546": 10895, "95464": 10896, "54645": 10897, "4645 ": 10898, "645 k": 10899, "45 ki": 10900, "an ha": 10901, "n had": 10902, "ri y": 10903, "tri y": 10904, "ri ya": 10905, "h 10": 10906, "1042": 10907, "4233": 10908, "kah 1": 10909, "ah 10": 10910, "h 104": 10911, " 1042": 10912, "10423": 10913, "04233": 10914, "4233 ": 10915, "k 9": 10916, "2096": 10917, "0968": 10918, "9684": 10919, "8456": 10920, "4566": 10921, "566 ": 10922, "ek 9": 10923, "k 95": 10924, " 958": 10925, "9585": 10926, "5267": 10927, "2676": 10928, "6763": 10929, "k 420": 10930, "42096": 10931, "20968": 10932, "09684": 10933, "96845": 10934, "68456": 10935, "84566": 10936, "4566 ": 10937, "566 k": 10938, "rek 9": 10939, "ek 95": 10940, "k 958": 10941, " 9585": 10942, "95852": 10943, "58526": 10944, "85267": 10945, "52676": 10946, "26763": 10947, "67632": 10948, "7632 ": 10949, "pat p": 10950, "at pl": 10951, "945": 10952, " 090": 10953, "0908": 10954, "9083": 10955, "0832": 10956, "3294": 10957, "2945": 10958, "9453": 10959, "53 b": 10960, "3 br": 10961, "f 090": 10962, " 0908": 10963, "09083": 10964, "90832": 10965, "08329": 10966, "83294": 10967, "32945": 10968, "29453": 10969, "9453 ": 10970, "453 b": 10971, "53 br": 10972, "3 bri": 10973, "os p": 10974, "s pu": 10975, "kos p": 10976, "os pu": 10977, "s put": 10978, "9 f": 10979, " 391": 10980, "1077": 10981, "7722": 10982, "7228": 10983, "289 ": 10984, "89 f": 10985, "9 fi": 10986, "day ": 10987, "b 391": 10988, " 3910": 10989, "91077": 10990, "10772": 10991, "07722": 10992, "77228": 10993, "72289": 10994, "2289 ": 10995, "289 f": 10996, "89 fi": 10997, "9 fit": 10998, "nday ": 10999, "wip": 11000, "ipl": 11001, "awip": 11002, "wipl": 11003, "iplb": 11004, "is na": 11005, "s nas": 11006, "tawip": 11007, "awipl": 11008, "wiplb": 11009, "iplb ": 11010, "sip": 11011, "ipm": 11012, "pmi": 11013, "c do": 11014, "asip": 11015, "sipm": 11016, "ipmi": 11017, "pmi ": 11018, "i sm": 11019, "dc do": 11020, "c don": 11021, "nasip": 11022, "asipm": 11023, "sipmi": 11024, "ipmi ": 11025, "pmi s": 11026, "mi sm": 11027, "i smg": 11028, "ce bt": 11029, " 451": 11030, "4513": 11031, "5136": 11032, "1360": 11033, "6020": 11034, "0200": 11035, "2005": 11036, "005 ": 11037, "05 k": 11038, "b 451": 11039, " 4513": 11040, "45136": 11041, "51360": 11042, "13602": 11043, "36020": 11044, "60200": 11045, "02005": 11046, "2005 ": 11047, "005 k": 11048, "05 ki": 11049, "man p": 11050, "n pan": 11051, "eng l": 11052, "076": 11053, "it 0": 11054, "t 07": 11055, " 076": 11056, "0768": 11057, "7680": 11058, "6802": 11059, "8027": 11060, "0276": 11061, "bit 0": 11062, "it 07": 11063, "t 076": 11064, " 0768": 11065, "07680": 11066, "76802": 11067, "68027": 11068, "80276": 11069, "0276 ": 11070, "y 82": 11071, "2778": 11072, "7782": 11073, "8214": 11074, "2145": 11075, "ay 82": 11076, "y 827": 11077, " 8277": 11078, "82778": 11079, "27782": 11080, "77821": 11081, "78214": 11082, "82145": 11083, "21454": 11084, "1454 ": 11085, "onb": 11086, "nbt": 11087, "lonb": 11088, "onbt": 11089, "nbtm": 11090, "alonb": 11091, "lonbt": 11092, "onbtm": 11093, "nbtm ": 11094, "l 61": 11095, " 612": 11096, "6129": 11097, "1291": 11098, "9164": 11099, "1649": 11100, "4976": 11101, "9769": 11102, "7698": 11103, "698 ": 11104, "il 61": 11105, "l 612": 11106, " 6129": 11107, "61291": 11108, "12916": 11109, "29164": 11110, "91649": 11111, "16497": 11112, "64976": 11113, "49769": 11114, "97698": 11115, "7698 ": 11116, " 259": 11117, "2592": 11118, "5923": 11119, "2319": 11120, "1957": 11121, "570 ": 11122, "70 b": 11123, "f 259": 11124, " 2592": 11125, "25923": 11126, "59231": 11127, "92319": 11128, "23195": 11129, "31957": 11130, "19570": 11131, "9570 ": 11132, "570 b": 11133, "70 bn": 11134, "nt 8": 11135, "t 87": 11136, " 876": 11137, "8766": 11138, "7667": 11139, "6675": 11140, "int 8": 11141, "nt 87": 11142, "t 876": 11143, " 8766": 11144, "87667": 11145, "76675": 11146, "6675 ": 11147, "ik g": 11148, "k gi": 11149, "n 68": 11150, "6840": 11151, "8403": 11152, "4039": 11153, "0391": 11154, "9105": 11155, "1056": 11156, "dik g": 11157, "ik gi": 11158, "k gil": 11159, "han 6": 11160, "an 68": 11161, "n 684": 11162, " 6840": 11163, "68403": 11164, "84039": 11165, "40391": 11166, "03910": 11167, "39105": 11168, "91056": 11169, "1056 ": 11170, "o 7": 11171, "do 7": 11172, "o 77": 11173, "7124": 11174, "4231": 11175, "2316": 11176, "odo 7": 11177, "do 77": 11178, "o 771": 11179, "77124": 11180, "71242": 11181, "12423": 11182, "24231": 11183, "42316": 11184, "23165": 11185, "3165 ": 11186, "ope": 11187, "pe ": 11188, "b sh": 11189, "hope": 11190, "ope ": 11191, "db sh": 11192, "b sho": 11193, "shope": 11194, "hope ": 11195, "271": 11196, "i 66": 11197, " 662": 11198, "6627": 11199, "6271": 11200, "2715": 11201, "7154": 11202, "1542": 11203, "5422": 11204, "24 m": 11205, "ri 66": 11206, "i 662": 11207, " 6627": 11208, "66271": 11209, "62715": 11210, "27154": 11211, "71542": 11212, "15422": 11213, "54224": 11214, "4224 ": 11215, "224 m": 11216, "24 me": 11217, "4296": 11218, "9621": 11219, "1903": 11220, "039 ": 11221, "39 k": 11222, "9 ke": 11223, "k 40": 11224, " 407": 11225, "4075": 11226, "7506": 11227, "5066": 11228, "0667": 11229, "6679": 11230, "6797": 11231, "k 429": 11232, " 4296": 11233, "42962": 11234, "29621": 11235, "96219": 11236, "62190": 11237, "21903": 11238, "19039": 11239, "9039 ": 11240, "039 k": 11241, "39 ke": 11242, "9 ke ": 11243, "ek 40": 11244, "k 407": 11245, " 4075": 11246, "40750": 11247, "07506": 11248, "75066": 11249, "50667": 11250, "06679": 11251, "66797": 11252, "6797 ": 11253, "9127": 11254, "1272": 11255, "2729": 11256, "7298": 11257, "2987": 11258, "9872": 11259, "8729": 11260, "729 ": 11261, "29 p": 11262, "b 912": 11263, " 9127": 11264, "91272": 11265, "12729": 11266, "27298": 11267, "72987": 11268, "29872": 11269, "98729": 11270, "8729 ": 11271, "729 p": 11272, "29 pa": 11273, " 432": 11274, "3272": 11275, "2720": 11276, "7200": 11277, "2001": 11278, "0163": 11279, "163 ": 11280, "b 432": 11281, " 4327": 11282, "43272": 11283, "32720": 11284, "27200": 11285, "72001": 11286, "20016": 11287, "00163": 11288, "0163 ": 11289, "mt ah": 11290, "t aha": 11291, "da bd": 11292, "y pl": 11293, "r 87": 11294, "8733": 11295, "7330": 11296, "3300": 11297, "3001": 11298, "0162": 11299, "ipy p": 11300, "py pl": 11301, "y pln": 11302, "ar 87": 11303, "r 873": 11304, " 8733": 11305, "87330": 11306, "73300": 11307, "33001": 11308, "30016": 11309, "00162": 11310, "01622": 11311, "b9": 11312, "db9": 11313, "b95": 11314, "472": 11315, " db9": 11316, "db95": 11317, "b950": 11318, "9504": 11319, "0472": 11320, "4727": 11321, "2722": 11322, "g db9": 11323, " db95": 11324, "db950": 11325, "b9504": 11326, "95047": 11327, "50472": 11328, "04727": 11329, "47272": 11330, "72722": 11331, "27220": 11332, "la ba": 11333, "ea b": 11334, "tea b": 11335, "ea bp": 11336, "to s": 11337, "o sm": 11338, "ito s": 11339, "to sm": 11340, "o smg": 11341, "ak v": 11342, "nak v": 11343, "ak ve": 11344, "l a": 11345, "al a": 11346, "l an": 11347, "ial a": 11348, "al an": 11349, "l ani": 11350, "3 8": 11351, "t 24": 11352, " 240": 11353, "2401": 11354, "1446": 11355, "463 ": 11356, "63 8": 11357, "3 82": 11358, " 826": 11359, "it 24": 11360, "t 240": 11361, " 2401": 11362, "24014": 11363, "01446": 11364, "14463": 11365, "4463 ": 11366, "463 8": 11367, "63 82": 11368, "3 826": 11369, " 826 ": 11370, "ca 2": 11371, "a 20": 11372, "2069": 11373, "0694": 11374, "6943": 11375, "9433": 11376, "4334": 11377, "3340": 11378, "3409": 11379, "409 ": 11380, "09 v": 11381, "bca 2": 11382, "ca 20": 11383, "a 206": 11384, " 2069": 11385, "20694": 11386, "06943": 11387, "69433": 11388, "94334": 11389, "43340": 11390, "33409": 11391, "3409 ": 11392, "409 v": 11393, "09 ve": 11394, " 476": 11395, "4766": 11396, "7661": 11397, "6126": 11398, "1260": 11399, "2606": 11400, "6062": 11401, "62 k": 11402, "2 ke": 11403, "k 79": 11404, " 791": 11405, "7919": 11406, "1985": 11407, "9852": 11408, "5265": 11409, "2651": 11410, "651 ": 11411, "k 476": 11412, " 4766": 11413, "47661": 11414, "76612": 11415, "66126": 11416, "61260": 11417, "12606": 11418, "26062": 11419, "6062 ": 11420, "062 k": 11421, "62 ke": 11422, "2 ke ": 11423, "ek 79": 11424, "k 791": 11425, " 7919": 11426, "79198": 11427, "91985": 11428, "19852": 11429, "98526": 11430, "85265": 11431, "52651": 11432, "2651 ": 11433, "et i": 11434, "bet i": 11435, "et iu": 11436, "ket d": 11437, "et dp": 11438, "ap ": 11439, " ap ": 11440, "b ap ": 11441, "ea j": 11442, "rc bo": 11443, "tea j": 11444, "ea jk": 11445, "ga o": 11446, "rga o": 11447, "ga ok": 11448, "a oki": 11449, "n so": 11450, "on so": 11451, "n sol": 11452, "c ge": 11453, "su d": 11454, "u dp": 11455, "dc ge": 11456, "c gep": 11457, "nsu d": 11458, "su dp": 11459, "u dpk": 11460, "629": 11461, "r 08": 11462, "0858": 11463, "8580": 11464, "8006": 11465, "0629": 11466, "6294": 11467, "294 ": 11468, "fer 0": 11469, "er 08": 11470, "r 085": 11471, " 0858": 11472, "08580": 11473, "85800": 11474, "58006": 11475, "80062": 11476, "00629": 11477, "06294": 11478, "6294 ": 11479, "i 19": 11480, "9053": 11481, "3484": 11482, "484 ": 11483, "ri 19": 11484, "i 190": 11485, " 1905": 11486, "19053": 11487, "90534": 11488, "53484": 11489, "3484 ": 11490, "mt he": 11491, "t her": 11492, "8743": 11493, "430 ": 11494, "30 b": 11495, "f 887": 11496, " 8874": 11497, "88743": 11498, "87430": 11499, "7430 ": 11500, "430 b": 11501, "30 bn": 11502, "ga a": 11503, "a ar": 11504, "h 38": 11505, "389 ": 11506, "rga a": 11507, "ga ar": 11508, "a ari": 11509, "ah 38": 11510, "h 389": 11511, " 389 ": 11512, "b 92": 11513, " 924": 11514, "9242": 11515, "4236": 11516, "2369": 11517, "3695": 11518, "6953": 11519, "9539": 11520, "39 p": 11521, "db 92": 11522, "b 924": 11523, " 9242": 11524, "92423": 11525, "24236": 11526, "42369": 11527, "23695": 11528, "36953": 11529, "69539": 11530, "9539 ": 11531, "539 p": 11532, "39 pa": 11533, "t na": 11534, "i mk": 11535, "mt na": 11536, "t nas": 11537, "wi mk": 11538, "i mks": 11539, "la o": 11540, "a ol": 11541, "ola o": 11542, "la ol": 11543, "a oli": 11544, "f 18": 11545, " 181": 11546, "1812": 11547, "8123": 11548, "1235": 11549, "2350": 11550, "5077": 11551, "0774": 11552, "74 c": 11553, "rf 18": 11554, "f 181": 11555, " 1812": 11556, "18123": 11557, "81235": 11558, "12350": 11559, "23507": 11560, "35077": 11561, "50774": 11562, "0774 ": 11563, "774 c": 11564, "74 ca": 11565, "a le": 11566, "ga le": 11567, "a les": 11568, "ang l": 11569, "3488": 11570, "4881": 11571, "8812": 11572, "1278": 11573, "2788": 11574, "788 ": 11575, "88 k": 11576, "8 ke": 11577, "ek 0": 11578, "k 02": 11579, "0256": 11580, "2568": 11581, "6896": 11582, " 4348": 11583, "43488": 11584, "34881": 11585, "48812": 11586, "88127": 11587, "81278": 11588, "12788": 11589, "2788 ": 11590, "788 k": 11591, "88 ke": 11592, "8 ke ": 11593, "rek 0": 11594, "ek 02": 11595, "k 025": 11596, " 0256": 11597, "02568": 11598, "25689": 11599, "56896": 11600, "68963": 11601, "89630": 11602, "96302": 11603, "6302 ": 11604, "t 59": 11605, " 599": 11606, "9944": 11607, "9440": 11608, "4401": 11609, "014 ": 11610, "at 59": 11611, "t 599": 11612, " 5994": 11613, "59944": 11614, "99440": 11615, "94401": 11616, "44014": 11617, "4014 ": 11618, " 243": 11619, "2434": 11620, "4344": 11621, "3441": 11622, "4419": 11623, "4198": 11624, "i 243": 11625, " 2434": 11626, "24344": 11627, "43441": 11628, "34419": 11629, "44198": 11630, "41980": 11631, "19804": 11632, "da m": 11633, "uda m": 11634, "da ml": 11635, "y 04": 11636, "0477": 11637, "4770": 11638, "0646": 11639, "646 ": 11640, "ay 04": 11641, "y 047": 11642, " 0477": 11643, "04770": 11644, "47706": 11645, "77064": 11646, "70646": 11647, "0646 ": 11648, "om l": 11649, "bom l": 11650, "om lp": 11651, "5200": 11652, "2004": 11653, "0048": 11654, "048 ": 11655, "dah 5": 11656, "h 520": 11657, " 5200": 11658, "52004": 11659, "20048": 11660, "0048 ": 11661, " 430": 11662, "4306": 11663, "3060": 11664, "0604": 11665, "0446": 11666, "643 ": 11667, "f 430": 11668, " 4306": 11669, "43060": 11670, "30604": 11671, "06044": 11672, "60446": 11673, "04464": 11674, "44643": 11675, "4643 ": 11676, "en d": 11677, "rc mi": 11678, "men d": 11679, "en dp": 11680, "am c": 11681, "m cr": 11682, "iam c": 11683, "am cr": 11684, "m crb": 11685, "f 44": 11686, " 449": 11687, "4496": 11688, "4969": 11689, "9697": 11690, "6975": 11691, "9756": 11692, "7563": 11693, "5631": 11694, "rf 44": 11695, "f 449": 11696, " 4496": 11697, "44969": 11698, "49697": 11699, "96975": 11700, "69756": 11701, "97563": 11702, "75631": 11703, "5631 ": 11704, "ent s": 11705, "nt sm": 11706, "k pu": 11707, "i 69": 11708, " 696": 11709, "6967": 11710, "9851": 11711, "8516": 11712, "166 ": 11713, "dik p": 11714, "ik pu": 11715, "k put": 11716, "ni 69": 11717, "i 696": 11718, " 6967": 11719, "69679": 11720, "96798": 11721, "67985": 11722, "79851": 11723, "98516": 11724, "85166": 11725, "5166 ": 11726, " 096": 11727, "9627": 11728, "6279": 11729, "279 ": 11730, "79 b": 11731, "9 bc": 11732, "f 096": 11733, " 0962": 11734, "09627": 11735, "96279": 11736, "6279 ": 11737, "279 b": 11738, "79 bc": 11739, "9 bca": 11740, "s 8": 11741, "js 8": 11742, "s 85": 11743, " 857": 11744, "8571": 11745, "5714": 11746, "1463": 11747, "4635": 11748, "6356": 11749, "567 ": 11750, "pjs 8": 11751, "js 85": 11752, "s 857": 11753, " 8571": 11754, "85714": 11755, "57146": 11756, "71463": 11757, "14635": 11758, "46356": 11759, "63567": 11760, "3567 ": 11761, "b 70": 11762, "7047": 11763, "0476": 11764, "4760": 11765, "7604": 11766, "6040": 11767, "0401": 11768, "017 ": 11769, "17 p": 11770, "db 70": 11771, "b 704": 11772, " 7047": 11773, "70476": 11774, "04760": 11775, "47604": 11776, "76040": 11777, "60401": 11778, "04017": 11779, "4017 ": 11780, "017 p": 11781, "17 pa": 11782, "up l": 11783, "p li": 11784, "ja 0": 11785, "a 00": 11786, "0026": 11787, "0268": 11788, "2688": 11789, "688 ": 11790, " up l": 11791, "up li": 11792, "p lin": 11793, "aja 0": 11794, "ja 00": 11795, "a 002": 11796, " 0026": 11797, "00268": 11798, "02688": 11799, "2688 ": 11800, "rta d": 11801, "197": 11802, "u ar": 11803, "h 55": 11804, " 556": 11805, "5565": 11806, "5654": 11807, "6549": 11808, "4919": 11809, "9197": 11810, "1971": 11811, "971 ": 11812, "bu ar": 11813, "u ari": 11814, "ah 55": 11815, "h 556": 11816, " 5565": 11817, "55654": 11818, "56549": 11819, "65491": 11820, "54919": 11821, "49197": 11822, "91971": 11823, "1971 ": 11824, "tol": 11825, " tol": 11826, "tol ": 11827, "b tol": 11828, " tol ": 11829, "9583": 11830, "5832": 11831, "hma 2": 11832, "ma 26": 11833, " 2669": 11834, "26695": 11835, "66958": 11836, "69583": 11837, "95832": 11838, "58329": 11839, "83295": 11840, "tl": 11841, "mtl": 11842, "tla": 11843, "pmtl": 11844, "mtla": 11845, "tlau": 11846, " pmtl": 11847, "pmtla": 11848, "mtlau": 11849, "tlaun": 11850, " 364": 11851, "3642": 11852, "7690": 11853, "it 36": 11854, "t 364": 11855, " 3642": 11856, "36427": 11857, "64276": 11858, "27690": 11859, "7690 ": 11860, "er d": 11861, "ter d": 11862, "er dp": 11863, "r dps": 11864, "8406": 11865, "4069": 11866, "0693": 11867, "6932": 11868, "320 ": 11869, "it 84": 11870, "t 840": 11871, " 8406": 11872, "84069": 11873, "40693": 11874, "06932": 11875, "69320": 11876, "9320 ": 11877, "h j": 11878, "ah j": 11879, "h jk": 11880, "qah j": 11881, "ah jk": 11882, "h jkt": 11883, "332": 11884, "do 5": 11885, "o 52": 11886, " 523": 11887, "9303": 11888, "3033": 11889, "0332": 11890, "3327": 11891, "odo 5": 11892, "do 52": 11893, "o 523": 11894, " 5239": 11895, "23930": 11896, "39303": 11897, "93033": 11898, "30332": 11899, "03327": 11900, "3327 ": 11901, "b pec": 11902, "an bg": 11903, "1254": 11904, "2542": 11905, "5421": 11906, "4215": 11907, "2153": 11908, "1539": 11909, "5397": 11910, "f 125": 11911, " 1254": 11912, "12542": 11913, "25421": 11914, "54215": 11915, "42153": 11916, "21539": 11917, "15397": 11918, "5397 ": 11919, "h 58": 11920, " 586": 11921, "5411": 11922, "4112": 11923, "1230": 11924, "230 ": 11925, "kah 5": 11926, "ah 58": 11927, "h 586": 11928, " 5865": 11929, "58654": 11930, "65411": 11931, "54112": 11932, "41123": 11933, "11230": 11934, "1230 ": 11935, "ung l": 11936, "c o": 11937, "law": 11938, "aw ": 11939, "dc o": 11940, "c op": 11941, "elaw": 11942, "law ": 11943, "edc o": 11944, "dc op": 11945, "c opt": 11946, "melaw": 11947, "elaw ": 11948, "b na": 11949, "wi d": 11950, "db na": 11951, "b nas": 11952, "awi d": 11953, "wi dp": 11954, "i dpk": 11955, "p so": 11956, "op so": 11957, "p sol": 11958, "rga r": 11959, "ga ra": 11960, "4 t": 11961, "b 44": 11962, " 441": 11963, "4413": 11964, "1325": 11965, "3257": 11966, "5777": 11967, "7774": 11968, "74 t": 11969, "4 to": 11970, "db 44": 11971, "b 441": 11972, " 4413": 11973, "44132": 11974, "41325": 11975, "13257": 11976, "32577": 11977, "25777": 11978, "57774": 11979, "7774 ": 11980, "774 t": 11981, "74 to": 11982, "4 ton": 11983, "p bg": 11984, "mp bg": 11985, "p bgr": 11986, "omp ": 11987, "komp ": 11988, "at 9": 11989, "t 94": 11990, " 946": 11991, "9465": 11992, "6546": 11993, "mat 9": 11994, "at 94": 11995, "t 946": 11996, " 9465": 11997, "94654": 11998, "46546": 11999, "6546 ": 12000, "nt y": 12001, "ent y": 12002, "nt yk": 12003, "4 v": 12004, "i 39": 12005, " 393": 12006, "3935": 12007, "9357": 12008, "3573": 12009, "5735": 12010, "3562": 12011, "24 v": 12012, "4 ve": 12013, "ri 39": 12014, "i 393": 12015, " 3935": 12016, "39357": 12017, "93573": 12018, "35735": 12019, "57356": 12020, "73562": 12021, "35624": 12022, "624 v": 12023, "24 ve": 12024, "4 ver": 12025, "487": 12026, " 040": 12027, "4048": 12028, "0487": 12029, "4873": 12030, "8738": 12031, "7380": 12032, "3805": 12033, "805 ": 12034, "05 l": 12035, "b 040": 12036, " 0404": 12037, "04048": 12038, "40487": 12039, "04873": 12040, "48738": 12041, "87380": 12042, "73805": 12043, "3805 ": 12044, "805 l": 12045, "05 li": 12046, "l ju": 12047, "al ju": 12048, "l jul": 12049, "ga 9": 12050, "a 94": 12051, " 944": 12052, "9447": 12053, "4751": 12054, "7515": 12055, "5157": 12056, "1571": 12057, "5713": 12058, "aga 9": 12059, "ga 94": 12060, "a 944": 12061, " 9447": 12062, "94475": 12063, "44751": 12064, "47515": 12065, "75157": 12066, "51571": 12067, "15713": 12068, "5713 ": 12069, "8 d": 12070, "5451": 12071, "4517": 12072, "1755": 12073, "7559": 12074, "998 ": 12075, "98 d": 12076, "8 da": 12077, "f 545": 12078, " 5451": 12079, "54517": 12080, "45175": 12081, "51755": 12082, "17559": 12083, "75599": 12084, "55998": 12085, "5998 ": 12086, "998 d": 12087, "98 da": 12088, "8 dan": 12089, "32846": 12090, "28462": 12091, "84621": 12092, "46214": 12093, "62141": 12094, "21413": 12095, "1413 ": 12096, "y 49": 12097, "9372": 12098, "3727": 12099, "727 ": 12100, "ay 49": 12101, "y 493": 12102, " 4937": 12103, "49372": 12104, "93727": 12105, "3727 ": 12106, "ee l": 12107, "fee l": 12108, "ee lp": 12109, "r bt": 12110, "ar bt": 12111, "r btm": 12112, "wa b": 12113, "iwa b": 12114, "wa bg": 12115, "si y": 12116, "a 98": 12117, "9888": 12118, "8883": 12119, "8835": 12120, "835 ": 12121, "asi y": 12122, "si ya": 12123, "ta 98": 12124, "a 988": 12125, " 9888": 12126, "98883": 12127, "88835": 12128, "8835 ": 12129, "la h": 12130, "ola h": 12131, "la he": 12132, "4775": 12133, "7758": 12134, "7580": 12135, "5804": 12136, "8046": 12137, "62 c": 12138, "54775": 12139, "47758": 12140, "77580": 12141, "75804": 12142, "58046": 12143, "80462": 12144, "0462 ": 12145, "462 c": 12146, "62 ci": 12147, "k 41": 12148, "1907": 12149, "070 ": 12150, "tk 41": 12151, "k 419": 12152, " 4190": 12153, "41907": 12154, "19070": 12155, "9070 ": 12156, "u v": 12157, "bu v": 12158, "u ve": 12159, "9735": 12160, "7357": 12161, "3572": 12162, "2199": 12163, "997 ": 12164, "ibu v": 12165, "bu ve": 12166, "u ver": 12167, "ini 9": 12168, "ni 97": 12169, " 9735": 12170, "97357": 12171, "73572": 12172, "35721": 12173, "57219": 12174, "72199": 12175, "21997": 12176, "1997 ": 12177, "a 56": 12178, "5681": 12179, "6818": 12180, "8181": 12181, "181 ": 12182, "ca 56": 12183, "a 568": 12184, " 5681": 12185, "56818": 12186, "68181": 12187, "8181 ": 12188, "i fi": 12189, "mi fi": 12190, "i fit": 12191, "l 5": 12192, "il 5": 12193, "l 56": 12194, " 563": 12195, "5639": 12196, "6395": 12197, "3955": 12198, "5551": 12199, "5513": 12200, "5138": 12201, "bil 5": 12202, "il 56": 12203, "l 563": 12204, " 5639": 12205, "56395": 12206, "63955": 12207, "39555": 12208, "95551": 12209, "55513": 12210, "55138": 12211, "5138 ": 12212, " d ": 12213, "g d ": 12214, "ng d ": 12215, "en j": 12216, "n jk": 12217, "men j": 12218, "en jk": 12219, "n jkt": 12220, "b 57": 12221, " 570": 12222, "5709": 12223, "7092": 12224, "9247": 12225, "7502": 12226, "db 57": 12227, "b 570": 12228, " 5709": 12229, "57092": 12230, "70924": 12231, "09247": 12232, "92475": 12233, "47502": 12234, "7502 ": 12235, " 871": 12236, "1937": 12237, "937 ": 12238, "si de": 12239, "i 871": 12240, " 8719": 12241, "71937": 12242, "1937 ": 12243, "at t": 12244, "pat t": 12245, "at tn": 12246, "0 t": 12247, "1659": 12248, "6591": 12249, "5912": 12250, "9125": 12251, "2510": 12252, "10 t": 12253, "0 to": 12254, "f 316": 12255, " 3165": 12256, "31659": 12257, "16591": 12258, "65912": 12259, "59125": 12260, "91251": 12261, "12510": 12262, "2510 ": 12263, "510 t": 12264, "10 to": 12265, "0 ton": 12266, "ri me": 12267, "kim": 12268, "imi": 12269, "mia": 12270, "far": 12271, "ek k": 12272, "k ki": 12273, " kim": 12274, "kimi": 12275, "imia": 12276, "mia ": 12277, "ia f": 12278, " far": 12279, "farm": 12280, "tek k": 12281, "ek ki": 12282, "k kim": 12283, " kimi": 12284, "kimia": 12285, "imia ": 12286, "mia f": 12287, "ia fa": 12288, "a far": 12289, " farm": 12290, "farma": 12291, "dca": 12292, "cam": 12293, "edca": 12294, "dcam": 12295, "cama": 12296, " edca": 12297, "edcam": 12298, "dcama": 12299, "camaz": 12300, "t 89": 12301, " 898": 12302, "8983": 12303, "306 ": 12304, "at 89": 12305, "t 898": 12306, " 8983": 12307, "89830": 12308, "8306 ": 12309, "h fa": 12310, "ah fa": 12311, "h faj": 12312, "na 6": 12313, "a 62": 12314, "6211": 12315, "2113": 12316, "1138": 12317, "1387": 12318, "3879": 12319, "8792": 12320, "7929": 12321, "ina 6": 12322, "na 62": 12323, "a 621": 12324, " 6211": 12325, "62113": 12326, "21138": 12327, "11387": 12328, "13879": 12329, "38792": 12330, "87929": 12331, "7929 ": 12332, "et ci": 12333, "t cic": 12334, "dcr": 12335, "cra": 12336, "edcr": 12337, "dcra": 12338, "cram": 12339, " edcr": 12340, "edcra": 12341, "dcram": 12342, "crama": 12343, "na ml": 12344, "os s": 12345, "s sa": 12346, "kos s": 12347, "os sa": 12348, "s sar": 12349, " ob": 12350, "ob ": 12351, "tab": 12352, "abu": 12353, "bun": 12354, "epo": 12355, "pos": 12356, "sa o": 12357, "a ob": 12358, " ob ": 12359, "ob c": 12360, "b ca": 12361, " ca ": 12362, "ca t": 12363, "a ta": 12364, " tab": 12365, "tabu": 12366, "abun": 12367, "bung": 12368, "unga": 12369, "ke d": 12370, "e de": 12371, "depo": 12372, "epos": 12373, "posi": 12374, "osit": 12375, "sito": 12376, " sa o": 12377, "sa ob": 12378, "a ob ": 12379, " ob c": 12380, "ob ca": 12381, "b ca ": 12382, " ca t": 12383, "ca ta": 12384, "a tab": 12385, " tabu": 12386, "tabun": 12387, "abung": 12388, "bunga": 12389, "ungan": 12390, "gan k": 12391, " ke d": 12392, "ke de": 12393, "e dep": 12394, " depo": 12395, "depos": 12396, "eposi": 12397, "posit": 12398, "osito": 12399, "sito ": 12400, "u ha": 12401, "to 6": 12402, "3161": 12403, "1612": 12404, "1257": 12405, "2572": 12406, "bu ha": 12407, "u had": 12408, "nto 6": 12409, "to 63": 12410, "o 631": 12411, "63161": 12412, "31612": 12413, "16125": 12414, "61257": 12415, "12572": 12416, "25721": 12417, "7 v": 12418, "n 55": 12419, " 553": 12420, "5530": 12421, "5303": 12422, "0326": 12423, "3268": 12424, "2683": 12425, "837 ": 12426, "37 v": 12427, "7 vi": 12428, "on 55": 12429, "n 553": 12430, " 5530": 12431, "55303": 12432, "53032": 12433, "30326": 12434, "03268": 12435, "32683": 12436, "26837": 12437, "6837 ": 12438, "837 v": 12439, "37 vi": 12440, "7 vin": 12441, "i na": 12442, "ya 9": 12443, "a 93": 12444, " 931": 12445, "3177": 12446, "1779": 12447, "779 ": 12448, "si na": 12449, "i nan": 12450, "aya 9": 12451, "ya 93": 12452, "a 931": 12453, " 9317": 12454, "93177": 12455, "31779": 12456, "1779 ": 12457, "re pl": 12458, "227": 12459, "a 70": 12460, " 708": 12461, "0822": 12462, "2227": 12463, "2276": 12464, "ca 70": 12465, "a 708": 12466, " 7082": 12467, "70822": 12468, "08222": 12469, "82227": 12470, "22276": 12471, "2276 ": 12472, "ris m": 12473, "vis p": 12474, "is pl": 12475, "s pla": 12476, " 991": 12477, "9912": 12478, "1287": 12479, "8752": 12480, "7520": 12481, "5203": 12482, "203 ": 12483, "da 99": 12484, "a 991": 12485, " 9912": 12486, "99128": 12487, "91287": 12488, "12875": 12489, "28752": 12490, "87520": 12491, "75203": 12492, "5203 ": 12493, "dah b": 12494, "ce ml": 12495, "ga j": 12496, "a ju": 12497, "rga j": 12498, "ga ju": 12499, "a jul": 12500, "s kaf": 12501, "ga w": 12502, "rga w": 12503, "ga wa": 12504, "s 1": 12505, "191": 12506, "is 1": 12507, "s 19": 12508, " 191": 12509, "1918": 12510, "9183": 12511, "8300": 12512, "3002": 12513, "0023": 12514, "0237": 12515, "2371": 12516, "3713": 12517, "xis 1": 12518, "is 19": 12519, "s 191": 12520, " 1918": 12521, "19183": 12522, "91830": 12523, "18300": 12524, "83002": 12525, "30023": 12526, "00237": 12527, "02371": 12528, "23713": 12529, "3713 ": 12530, "us l": 12531, "ius l": 12532, "us lp": 12533, "4926": 12534, "9264": 12535, "2643": 12536, "6437": 12537, "4374": 12538, "3746": 12539, "6 ki": 12540, "74926": 12541, "49264": 12542, "92643": 12543, "26437": 12544, "64374": 12545, "43746": 12546, "3746 ": 12547, "746 k": 12548, "46 ki": 12549, "6 kir": 12550, "man m": 12551, "n mul": 12552, "6021": 12553, "1198": 12554, "8025": 12555, "025 ": 12556, "86021": 12557, "60211": 12558, "02119": 12559, "21198": 12560, "11980": 12561, "19802": 12562, "98025": 12563, "8025 ": 12564, "g m": 12565, "ng m": 12566, "g ml": 12567, "ung m": 12568, "ng ml": 12569, "g mlg": 12570, "l i": 12571, "al i": 12572, "l in": 12573, "ial i": 12574, "al in": 12575, "l ind": 12576, "u he": 12577, "3011": 12578, "0119": 12579, "6740": 12580, "7400": 12581, "400 ": 12582, "bu he": 12583, "u hen": 12584, "wan 3": 12585, "an 30": 12586, "n 301": 12587, " 3011": 12588, "30119": 12589, "01196": 12590, "19674": 12591, "96740": 12592, "67400": 12593, "7400 ": 12594, "ikes": 12595, "kest": 12596, "nikes": 12597, "ikest": 12598, "kesto": 12599, "estor": 12600, "re md": 12601, "473": 12602, "9604": 12603, "6047": 12604, "0473": 12605, "473 ": 12606, "ar 96": 12607, "r 960": 12608, " 9604": 12609, "96047": 12610, "60473": 12611, "0473 ": 12612, "at bg": 12613, "l b": 12614, "il b": 12615, "l bt": 12616, "bil b": 12617, "il bt": 12618, "l btm": 12619, "rm ": 12620, "erm ": 12621, "perm ": 12622, "int m": 12623, "da l": 12624, "uda l": 12625, "da lp": 12626, "al h": 12627, "l ha": 12628, "ial h": 12629, "al ha": 12630, "l had": 12631, "ra pb": 12632, "ne 8": 12633, "e 84": 12634, "7646": 12635, "6467": 12636, "4679": 12637, "9833": 12638, "8335": 12639, "335 ": 12640, "ine 8": 12641, "ne 84": 12642, "e 847": 12643, "84764": 12644, "47646": 12645, "76467": 12646, "64679": 12647, "46798": 12648, "67983": 12649, "79833": 12650, "98335": 12651, "8335 ": 12652, "an mk": 12653, "p 35": 12654, " 351": 12655, "351 ": 12656, "op 35": 12657, "p 351": 12658, " 351 ": 12659, " 278": 12660, "2786": 12661, "7869": 12662, "8693": 12663, "6931": 12664, "3170": 12665, "b 278": 12666, " 2786": 12667, "27869": 12668, "78693": 12669, "86931": 12670, "69317": 12671, "93170": 12672, "31703": 12673, "ki m": 12674, "uki m": 12675, "ki md": 12676, "8535": 12677, "5356": 12678, "3569": 12679, "5692": 12680, "6925": 12681, "2535": 12682, "535 ": 12683, "f 853": 12684, " 8535": 12685, "85356": 12686, "53569": 12687, "35692": 12688, "56925": 12689, "69253": 12690, "92535": 12691, "2535 ": 12692, "535 b": 12693, "35 bc": 12694, "n ge": 12695, "u ml": 12696, "kan g": 12697, "an ge": 12698, "n gep": 12699, "su ml": 12700, "u mlg": 12701, "m bd": 12702, "dc bu": 12703, "am bd": 12704, "m bdg": 12705, "f 91": 12706, " 919": 12707, "1984": 12708, "1429": 12709, "rf 91": 12710, "f 919": 12711, " 9198": 12712, "91984": 12713, "19841": 12714, "98414": 12715, "84142": 12716, "41429": 12717, "14291": 12718, "t da": 12719, "let d": 12720, "et da": 12721, "t dan": 12722, "dana ": 12723, "h dpk": 12724, "om mk": 12725, "rir": 12726, "u 0": 12727, "036": 12728, "ik n": 12729, "urir": 12730, "rira": 12731, "irah": 12732, "yu 0": 12733, "u 00": 12734, "0020": 12735, "0203": 12736, "2036": 12737, "0363": 12738, "3637": 12739, "6374": 12740, "3740": 12741, "dik n": 12742, "ik nu": 12743, "nurir": 12744, "urira": 12745, "rirah": 12746, "iraha": 12747, "ayu 0": 12748, "yu 00": 12749, "u 002": 12750, " 0020": 12751, "00203": 12752, "02036": 12753, "20363": 12754, "03637": 12755, "36374": 12756, "63740": 12757, "3740 ": 12758, " 390": 12759, "3907": 12760, "0707": 12761, "0793": 12762, "9315": 12763, "315 ": 12764, "f 390": 12765, " 3907": 12766, "39070": 12767, "90707": 12768, "07079": 12769, "70793": 12770, "07931": 12771, "79315": 12772, "9315 ": 12773, "315 b": 12774, "rt sm": 12775, "l ne": 12776, "il ne": 12777, "l new": 12778, "vic ": 12779, "rvic ": 12780, " 784": 12781, "4330": 12782, "3308": 12783, "yat 7": 12784, "at 78": 12785, "t 784": 12786, " 7843": 12787, "78433": 12788, "84330": 12789, "43308": 12790, "33089": 12791, "30891": 12792, "08918": 12793, "y 32": 12794, " 322": 12795, "3225": 12796, "2256": 12797, "2561": 12798, "5610": 12799, "6106": 12800, "1065": 12801, "652 ": 12802, "ay 32": 12803, "y 322": 12804, " 3225": 12805, "32256": 12806, "22561": 12807, "25610": 12808, "56106": 12809, "61065": 12810, "10652": 12811, "0652 ": 12812, "b 55": 12813, " 558": 12814, "5588": 12815, "8787": 12816, "7870": 12817, "8703": 12818, "7033": 12819, "db 55": 12820, "b 558": 12821, " 5588": 12822, "55887": 12823, "58878": 12824, "88787": 12825, "87870": 12826, "78703": 12827, "87033": 12828, "7033 ": 12829, "ek d": 12830, "k da": 12831, "rek d": 12832, "ek da": 12833, "k dan": 12834, "f 68": 12835, " 681": 12836, "6811": 12837, "951 ": 12838, "51 k": 12839, "1 ku": 12840, "rf 68": 12841, "f 681": 12842, " 6811": 12843, "68112": 12844, "11237": 12845, "12379": 12846, "23795": 12847, "37951": 12848, "7951 ": 12849, "951 k": 12850, "51 ku": 12851, "1 kur": 12852, "wa d": 12853, "iwa d": 12854, "wa dp": 12855, "mr": 12856, "tj": 12857, " mr": 12858, "mrt": 12859, "rtj": 12860, "tja": 12861, "p mr": 12862, " mrt": 12863, "mrtj": 12864, "rtja": 12865, "tjak": 12866, "ta j": 12867, "np mr": 12868, "p mrt": 12869, " mrtj": 12870, "mrtja": 12871, "rtjak": 12872, "tjaka": 12873, "rta j": 12874, "ta jk": 12875, "ak s": 12876, "nak s": 12877, "ak su": 12878, "ita p": 12879, "ta pl": 12880, "h 16": 12881, " 168": 12882, "1685": 12883, "6850": 12884, "8501": 12885, "dah 1": 12886, "ah 16": 12887, "h 168": 12888, " 1685": 12889, "16850": 12890, "68501": 12891, "8501 ": 12892, "956": 12893, "6843": 12894, "8438": 12895, "4384": 12896, "3849": 12897, "4956": 12898, "9565": 12899, "565 ": 12900, " 6843": 12901, "68438": 12902, "84384": 12903, "43849": 12904, "38495": 12905, "84956": 12906, "49565": 12907, "9565 ": 12908, "911": 12909, "8049": 12910, "0499": 12911, "9999": 12912, "9991": 12913, "9911": 12914, "911 ": 12915, "11 h": 12916, "i 280": 12917, "28049": 12918, "80499": 12919, "04999": 12920, "49999": 12921, "99991": 12922, "99911": 12923, "9911 ": 12924, "911 h": 12925, "11 ha": 12926, "9c": 12927, "99c": 12928, "9ci": 12929, "8965": 12930, "9652": 12931, "6524": 12932, "5240": 12933, "4099": 12934, "099c": 12935, "99ci": 12936, "9cim": 12937, "f 289": 12938, "28965": 12939, "89652": 12940, "96524": 12941, "65240": 12942, "52409": 12943, "24099": 12944, "4099c": 12945, "099ci": 12946, "99cim": 12947, "9cimb": 12948, "h 2": 12949, "si a": 12950, "i ar": 12951, "ah 2": 12952, "h 21": 12953, " 214": 12954, "1414": 12955, "asi a": 12956, "si ar": 12957, "i ari": 12958, "lah 2": 12959, "ah 21": 12960, "h 214": 12961, " 2141": 12962, "21414": 12963, "14146": 12964, "s ni": 12965, "is ni": 12966, "s nik": 12967, "vi ": 12968, "rvi ": 12969, "ervi ": 12970, "ent b": 12971, "nt bd": 12972, "dc lo": 12973, "f 27": 12974, " 274": 12975, "2740": 12976, "7404": 12977, "4042": 12978, "0422": 12979, "2241": 12980, "2415": 12981, "415 ": 12982, "rf 27": 12983, "f 274": 12984, " 2740": 12985, "27404": 12986, "74042": 12987, "40422": 12988, "04224": 12989, "42241": 12990, "22415": 12991, "2415 ": 12992, "415 b": 12993, "t ni": 12994, "e s ": 12995, "mt ni": 12996, "t nik": 12997, "ke s ": 12998, "3675": 12999, "6758": 13000, "7581": 13001, "5811": 13002, "1236": 13003, "236 ": 13004, "int 3": 13005, "nt 36": 13006, " 3675": 13007, "36758": 13008, "67581": 13009, "75811": 13010, "58112": 13011, "11236": 13012, "1236 ": 13013, "ry p": 13014, "y pb": 13015, "dry p": 13016, "ry pb": 13017, "y pbr": 13018, "6 n": 13019, "i 38": 13020, " 387": 13021, "3878": 13022, "8780": 13023, "7806": 13024, "0608": 13025, "6089": 13026, "96 n": 13027, "6 nu": 13028, "ri 38": 13029, "i 387": 13030, " 3878": 13031, "38780": 13032, "87806": 13033, "78060": 13034, "80608": 13035, "06089": 13036, "60896": 13037, "0896 ": 13038, "896 n": 13039, "96 nu": 13040, "6 nur": 13041, "r 74": 13042, "7461": 13043, "4618": 13044, "6182": 13045, "1820": 13046, "2009": 13047, "0099": 13048, "er 74": 13049, "r 746": 13050, " 7461": 13051, "74618": 13052, "46182": 13053, "61820": 13054, "18200": 13055, "82009": 13056, "20099": 13057, "0099 ": 13058, "mi e": 13059, "i ek": 13060, "ami e": 13061, "mi ek": 13062, "i eko": 13063, "al vi": 13064, "l vin": 13065, "nbg": 13066, "ganb": 13067, "anbg": 13068, "nbgr": 13069, "nganb": 13070, "ganbg": 13071, "anbgr": 13072, "nbgr ": 13073, "l e": 13074, "al e": 13075, "l en": 13076, "ial e": 13077, "al en": 13078, "l end": 13079, "erab": 13080, "rabd": 13081, "abdg": 13082, " erab": 13083, "erabd": 13084, "rabdg": 13085, "abdg ": 13086, "i 71": 13087, " 715": 13088, "7150": 13089, "1509": 13090, "5098": 13091, "9831": 13092, "8319": 13093, "195 ": 13094, "95 l": 13095, "bri 7": 13096, "ri 71": 13097, "i 715": 13098, " 7150": 13099, "71509": 13100, "15098": 13101, "50983": 13102, "09831": 13103, "98319": 13104, "83195": 13105, "3195 ": 13106, "195 l": 13107, "95 li": 13108, "t 74": 13109, "4928": 13110, "9287": 13111, "2871": 13112, "8716": 13113, "it 74": 13114, "t 749": 13115, "74928": 13116, "49287": 13117, "92871": 13118, "28716": 13119, "8716 ": 13120, "1 l": 13121, "i 47": 13122, " 474": 13123, "4740": 13124, "7407": 13125, "4071": 13126, "0715": 13127, "1572": 13128, "21 l": 13129, "1 le": 13130, "ri 47": 13131, "i 474": 13132, " 4740": 13133, "47407": 13134, "74071": 13135, "40715": 13136, "07157": 13137, "71572": 13138, "15721": 13139, "721 l": 13140, "21 le": 13141, "1 les": 13142, "0428": 13143, "4285": 13144, "5005": 13145, "0059": 13146, "iri 7": 13147, "ri 70": 13148, "i 704": 13149, " 7042": 13150, "70428": 13151, "04285": 13152, "42850": 13153, "85005": 13154, "50059": 13155, "0059 ": 13156, " 353": 13157, "3532": 13158, "5327": 13159, "3279": 13160, "2792": 13161, "2318": 13162, "1862": 13163, "862 ": 13164, "y 353": 13165, " 3532": 13166, "35327": 13167, "53279": 13168, "32792": 13169, "27923": 13170, "79231": 13171, "92318": 13172, "23186": 13173, "31862": 13174, "1862 ": 13175, "r 30": 13176, " 304": 13177, "3042": 13178, "4238": 13179, "2385": 13180, "3858": 13181, "8585": 13182, "5858": 13183, "ter 3": 13184, "er 30": 13185, "r 304": 13186, " 3042": 13187, "30423": 13188, "04238": 13189, "42385": 13190, "23858": 13191, "38585": 13192, "85858": 13193, "5858 ": 13194, "on 8": 13195, "n 80": 13196, " 801": 13197, "8018": 13198, "1857": 13199, "8572": 13200, "5723": 13201, "2302": 13202, "mon 8": 13203, "on 80": 13204, "n 801": 13205, " 8018": 13206, "80185": 13207, "01857": 13208, "18572": 13209, "85723": 13210, "57230": 13211, "72302": 13212, "2302 ": 13213, " 143": 13214, "143 ": 13215, "ber 1": 13216, "r 143": 13217, " 143 ": 13218, "nak p": 13219, "k pan": 13220, "tan p": 13221, "an pb": 13222, "0 4": 13223, "bu l": 13224, "u li": 13225, "na 2": 13226, " 260": 13227, "2608": 13228, "6086": 13229, "0869": 13230, "8696": 13231, "6966": 13232, "9666": 13233, "6660": 13234, "660 ": 13235, "60 4": 13236, "0 45": 13237, " 453": 13238, "ibu l": 13239, "bu li": 13240, "u lin": 13241, "ina 2": 13242, "na 26": 13243, "a 260": 13244, " 2608": 13245, "26086": 13246, "60869": 13247, "08696": 13248, "86966": 13249, "69666": 13250, "96660": 13251, "6660 ": 13252, "660 4": 13253, "60 45": 13254, "0 453": 13255, " 453 ": 13256, "m 9": 13257, "um 9": 13258, "m 96": 13259, "9607": 13260, "6075": 13261, "0751": 13262, "7514": 13263, "5142": 13264, "4255": 13265, "rum 9": 13266, "um 96": 13267, "m 960": 13268, " 9607": 13269, "96075": 13270, "60751": 13271, "07514": 13272, "75142": 13273, "51425": 13274, "14255": 13275, "4255 ": 13276, "i gi": 13277, "mi gi": 13278, "i gil": 13279, "7491": 13280, "1608": 13281, "6080": 13282, "0802": 13283, "8021": 13284, "021 ": 13285, "f 749": 13286, " 7491": 13287, "74916": 13288, "49160": 13289, "91608": 13290, "16080": 13291, "60802": 13292, "08021": 13293, "8021 ": 13294, "021 h": 13295, "21 ha": 13296, "ja r": 13297, "nja r": 13298, "ja ra": 13299, "a ram": 13300, "na bg": 13301, "y 11": 13302, "4452": 13303, "4528": 13304, "5283": 13305, "2836": 13306, "3653": 13307, "6531": 13308, "531 ": 13309, "ay 11": 13310, "y 114": 13311, "11445": 13312, "14452": 13313, "44528": 13314, "45283": 13315, "52836": 13316, "28365": 13317, "83653": 13318, "36531": 13319, "6531 ": 13320, " 321": 13321, "3213": 13322, "1328": 13323, "2828": 13324, "8283": 13325, "2830": 13326, "830 ": 13327, "r 321": 13328, " 3213": 13329, "32132": 13330, "21328": 13331, "13282": 13332, "32828": 13333, "28283": 13334, "82830": 13335, "2830 ": 13336, "l 69": 13337, " 695": 13338, "9581": 13339, "5814": 13340, "814 ": 13341, "il 69": 13342, "l 695": 13343, " 6958": 13344, "69581": 13345, "95814": 13346, "5814 ": 13347, "mt m": 13348, "t mi": 13349, "en b": 13350, "pmt m": 13351, "mt mi": 13352, "t mie": 13353, "men b": 13354, "en bg": 13355, "pad ": 13356, " pad ": 13357, "s bd": 13358, "us bd": 13359, "s bdg": 13360, "b 61": 13361, " 615": 13362, "6151": 13363, "1541": 13364, "5415": 13365, "4159": 13366, "1592": 13367, "592 ": 13368, "2 li": 13369, "db 61": 13370, "b 615": 13371, " 6151": 13372, "61515": 13373, "15154": 13374, "51541": 13375, "15415": 13376, "54159": 13377, "41592": 13378, "1592 ": 13379, "592 l": 13380, "92 li": 13381, "2 lin": 13382, "f 50": 13383, " 508": 13384, "5087": 13385, "0871": 13386, "7127": 13387, "1273": 13388, "2738": 13389, "388 ": 13390, "rf 50": 13391, "f 508": 13392, " 5087": 13393, "50871": 13394, "08712": 13395, "87127": 13396, "71273": 13397, "12738": 13398, "27388": 13399, "7388 ": 13400, "ry 5": 13401, "y 50": 13402, " 504": 13403, "0467": 13404, "dry 5": 13405, "ry 50": 13406, "y 504": 13407, " 5046": 13408, "50467": 13409, "04675": 13410, " 044": 13411, "4497": 13412, "4971": 13413, "9715": 13414, "7158": 13415, "1580": 13416, "5809": 13417, "09 t": 13418, "9 to": 13419, "ca 04": 13420, "a 044": 13421, " 0449": 13422, "04497": 13423, "44971": 13424, "49715": 13425, "97158": 13426, "71580": 13427, "15809": 13428, "5809 ": 13429, "809 t": 13430, "09 to": 13431, "9 ton": 13432, "al p": 13433, "l pu": 13434, " 844": 13435, "844 ": 13436, "ial p": 13437, "al pu": 13438, "l put": 13439, "ani 8": 13440, "i 844": 13441, " 844 ": 13442, "h bp": 13443, "kah b": 13444, "ah bp": 13445, "h bpn": 13446, "sa y": 13447, "ssa y": 13448, "sa yk": 13449, "6 c": 13450, "1511": 13451, "5116": 13452, "1166": 13453, "6502": 13454, "5026": 13455, "026 ": 13456, "26 c": 13457, "6 ci": 13458, "ri 15": 13459, "i 151": 13460, " 1511": 13461, "15116": 13462, "51166": 13463, "11665": 13464, "66502": 13465, "65026": 13466, "5026 ": 13467, "026 c": 13468, "26 ci": 13469, "6 cit": 13470, "c 1": 13471, "ac 1": 13472, "c 19": 13473, " 193": 13474, "1931": 13475, "3160": 13476, "6052": 13477, "0529": 13478, "5293": 13479, "2935": 13480, " ac 1": 13481, "ac 19": 13482, "c 193": 13483, " 1931": 13484, "19316": 13485, "93160": 13486, "31605": 13487, "16052": 13488, "60529": 13489, "05293": 13490, "52935": 13491, "29358": 13492, "gn 2": 13493, "n 29": 13494, " 298": 13495, "2984": 13496, "8417": 13497, "1724": 13498, "7248": 13499, "2480": 13500, "4808": 13501, "8081": 13502, "081 ": 13503, "pgn 2": 13504, "gn 29": 13505, "n 298": 13506, " 2984": 13507, "29841": 13508, "98417": 13509, "84172": 13510, "41724": 13511, "17248": 13512, "72480": 13513, "24808": 13514, "48081": 13515, "8081 ": 13516, "b le": 13517, "db le": 13518, "b les": 13519, "la z": 13520, "ola z": 13521, "la za": 13522, "a zah": 13523, "3677": 13524, "6773": 13525, "7738": 13526, "3880": 13527, "yat 3": 13528, "at 36": 13529, " 3677": 13530, "36773": 13531, "67738": 13532, "77388": 13533, "73880": 13534, "38809": 13535, "88094": 13536, "8094 ": 13537, "i v": 13538, "si v": 13539, "i vi": 13540, "a 53": 13541, "5385": 13542, "3857": 13543, "8577": 13544, "asi v": 13545, "si vi": 13546, "i vin": 13547, "via 5": 13548, "ia 53": 13549, "a 538": 13550, " 5385": 13551, "53857": 13552, "38577": 13553, "8577 ": 13554, "mtk": 13555, "tku": 13556, "pmtk": 13557, "mtku": 13558, "tkur": 13559, " pmtk": 13560, "pmtku": 13561, "mtkur": 13562, "tkurs": 13563, "n 3 ": 13564, "han 3": 13565, "an 3 ": 13566, "n 3 i": 13567, "k 25": 13568, "5419": 13569, "4196": 13570, "1965": 13571, "90 k": 13572, " 479": 13573, "4793": 13574, "7939": 13575, "3994": 13576, "9940": 13577, "9405": 13578, "4051": 13579, "ek 25": 13580, "k 254": 13581, "25419": 13582, "54196": 13583, "41965": 13584, "19653": 13585, "96539": 13586, "390 k": 13587, "90 ke": 13588, "k 479": 13589, " 4793": 13590, "47939": 13591, "79399": 13592, "93994": 13593, "39940": 13594, "99405": 13595, "94051": 13596, "4051 ": 13597, "qah s": 13598, "ga 3": 13599, "a 30": 13600, " 307": 13601, "3074": 13602, "0743": 13603, "7438": 13604, "3885": 13605, "8859": 13606, "8598": 13607, "598 ": 13608, "aga 3": 13609, "ga 30": 13610, "a 307": 13611, " 3074": 13612, "30743": 13613, "07438": 13614, "74388": 13615, "43885": 13616, "38859": 13617, "88598": 13618, "8598 ": 13619, "t v": 13620, "raa": 13621, "rt v": 13622, "t ve": 13623, "eraa": 13624, "raan": 13625, "aang": 13626, "ni 2": 13627, " 263": 13628, "2633": 13629, "6338": 13630, "3380": 13631, "3808": 13632, "8080": 13633, "0807": 13634, "8071": 13635, "071 ": 13636, " rt v": 13637, "rt ve": 13638, "t ver": 13639, "veraa": 13640, "eraan": 13641, "raang": 13642, "aangg": 13643, "ini 2": 13644, "ni 26": 13645, "i 263": 13646, " 2633": 13647, "26338": 13648, "63380": 13649, "33808": 13650, "38080": 13651, "80807": 13652, "08071": 13653, "8071 ": 13654, "k yu": 13655, "ak yu": 13656, "k yus": 13657, "u s": 13658, "bu s": 13659, "u su": 13660, "ma 8": 13661, " 885": 13662, "8854": 13663, "8546": 13664, "5465": 13665, "5412": 13666, "4128": 13667, "128 ": 13668, "ibu s": 13669, "bu su": 13670, "u sur": 13671, "rma 8": 13672, "ma 88": 13673, "a 885": 13674, " 8854": 13675, "88546": 13676, "85465": 13677, "54654": 13678, "46541": 13679, "65412": 13680, "54128": 13681, "4128 ": 13682, "5 g": 13683, " 029": 13684, "0293": 13685, "2939": 13686, "9966": 13687, "9661": 13688, "6615": 13689, "615 ": 13690, "15 g": 13691, "5 gu": 13692, "wib ": 13693, "f 029": 13694, " 0293": 13695, "02939": 13696, "29399": 13697, "93996": 13698, "39966": 13699, "99661": 13700, "96615": 13701, "6615 ": 13702, "615 g": 13703, "15 gu": 13704, "5 gun": 13705, " wib ": 13706, "737": 13707, " 053": 13708, "0537": 13709, "5373": 13710, "3737": 13711, "7375": 13712, "3758": 13713, "7585": 13714, "5851": 13715, "851 ": 13716, "1 ba": 13717, "ho r": 13718, "b 053": 13719, " 0537": 13720, "05373": 13721, "53737": 13722, "37375": 13723, "73758": 13724, "37585": 13725, "75851": 13726, "5851 ": 13727, "851 b": 13728, "51 ba": 13729, "1 bay": 13730, "oho r": 13731, "ho ru": 13732, "h ve": 13733, "ah ve": 13734, "h ver": 13735, "nda s": 13736, "4762": 13737, "t 847": 13738, "84762": 13739, "47620": 13740, "b 30": 13741, " 303": 13742, "2827": 13743, "7331": 13744, "331 ": 13745, "31 k": 13746, "db 30": 13747, "b 303": 13748, " 3032": 13749, "30328": 13750, "03282": 13751, "32827": 13752, "28273": 13753, "27331": 13754, "7331 ": 13755, "331 k": 13756, "31 ki": 13757, "era b": 13758, "ra bt": 13759, " 484": 13760, "4847": 13761, "8471": 13762, "4719": 13763, "719 ": 13764, "19 d": 13765, "f 484": 13766, " 4847": 13767, "48471": 13768, "84719": 13769, "4719 ": 13770, "719 d": 13771, "19 da": 13772, " 140": 13773, "1406": 13774, "4065": 13775, "6521": 13776, "5213": 13777, "323 ": 13778, "db 14": 13779, "b 140": 13780, " 1406": 13781, "14065": 13782, "40652": 13783, "06521": 13784, "65213": 13785, "52132": 13786, "21323": 13787, "1323 ": 13788, "313": 13789, "130": 13790, "ek 5": 13791, "k 56": 13792, "6898": 13793, "9898": 13794, "8666": 13795, "666 ": 13796, "k 63": 13797, "6312": 13798, "1223": 13799, "2313": 13800, "3130": 13801, "1308": 13802, "308 ": 13803, "rek 5": 13804, "ek 56": 13805, "k 568": 13806, " 5689": 13807, "56898": 13808, "68989": 13809, "89898": 13810, "98986": 13811, "89866": 13812, "98666": 13813, "8666 ": 13814, "666 k": 13815, "ek 63": 13816, "k 631": 13817, " 6312": 13818, "63122": 13819, "31223": 13820, "12231": 13821, "22313": 13822, "23130": 13823, "31308": 13824, "1308 ": 13825, "1 y": 13826, "mb 2": 13827, "2673": 13828, "6735": 13829, "5636": 13830, "3601": 13831, "01 y": 13832, "1 ya": 13833, "imb 2": 13834, "mb 26": 13835, "b 267": 13836, " 2673": 13837, "26735": 13838, "67356": 13839, "73563": 13840, "35636": 13841, "56360": 13842, "63601": 13843, "3601 ": 13844, "601 y": 13845, "01 ya": 13846, "1 yan": 13847, "np u": 13848, "p ur": 13849, "c ml": 13850, " np u": 13851, "np ur": 13852, "p urb": 13853, "ic ml": 13854, "c mlg": 13855, " 966": 13856, "966 ": 13857, "ari 9": 13858, "i 966": 13859, " 966 ": 13860, "d a": 13861, "m g": 13862, "od a": 13863, "d ay": 13864, "am g": 13865, "m ge": 13866, "su l": 13867, "u lp": 13868, "ood a": 13869, "od ay": 13870, "d aya": 13871, "yam g": 13872, "am ge": 13873, "m gep": 13874, "nsu l": 13875, "su lp": 13876, "u lpg": 13877, "ce mk": 13878, "7393": 13879, "3939": 13880, "9397": 13881, "9728": 13882, "7287": 13883, "2879": 13884, "879 ": 13885, "79 q": 13886, "ta 73": 13887, " 7393": 13888, "73939": 13889, "39397": 13890, "93972": 13891, "39728": 13892, "97287": 13893, "72879": 13894, "2879 ": 13895, "879 q": 13896, "79 qo": 13897, "is st": 13898, "s str": 13899, "o n": 13900, "to n": 13901, "o na": 13902, "sto n": 13903, "to na": 13904, "o nas": 13905, "wi ml": 13906, "n 31": 13907, "3172": 13908, "1725": 13909, "2559": 13910, "5593": 13911, "593 ": 13912, "lon 3": 13913, "on 31": 13914, "n 317": 13915, " 3172": 13916, "31725": 13917, "17255": 13918, "72559": 13919, "25593": 13920, "5593 ": 13921, "ja 8": 13922, "821 ": 13923, "nja 8": 13924, "ja 82": 13925, "a 821": 13926, " 821 ": 13927, "034": 13928, "f 03": 13929, " 034": 13930, "0344": 13931, "3442": 13932, "4422": 13933, "4222": 13934,
[...]
